<pad>	0.0
</s>	0.0
<s>	0.0
<unk>	0.0
<tool_call>	0.0
<tools>	0.0
<0x00>	0.0
<0x01>	0.0
<0x02>	0.0
<0x03>	0.0
<0x04>	0.0
<0x05>	0.0
<0x06>	0.0
<0x07>	0.0
<0x08>	0.0
<0x09>	0.0
<0x0A>	0.0
<0x0B>	0.0
<0x0C>	0.0
<0x0D>	0.0
<0x0E>	0.0
<0x0F>	0.0
<0x10>	0.0
<0x11>	0.0
<0x12>	0.0
<0x13>	0.0
<0x14>	0.0
<0x15>	0.0
<0x16>	0.0
<0x17>	0.0
<0x18>	0.0
<0x19>	0.0
<0x1A>	0.0
<0x1B>	0.0
<0x1C>	0.0
<0x1D>	0.0
<0x1E>	0.0
<0x1F>	0.0
<0x20>	0.0
<0x21>	0.0
<0x22>	0.0
<0x23>	0.0
<0x24>	0.0
<0x25>	0.0
<0x26>	0.0
<0x27>	0.0
<0x28>	0.0
<0x29>	0.0
<0x2A>	0.0
<0x2B>	0.0
<0x2C>	0.0
<0x2D>	0.0
<0x2E>	0.0
<0x2F>	0.0
<0x30>	0.0
<0x31>	0.0
<0x32>	0.0
<0x33>	0.0
<0x34>	0.0
<0x35>	0.0
<0x36>	0.0
<0x37>	0.0
<0x38>	0.0
<0x39>	0.0
<0x3A>	0.0
<0x3B>	0.0
<0x3C>	0.0
<0x3D>	0.0
<0x3E>	0.0
<0x3F>	0.0
<0x40>	0.0
<0x41>	0.0
<0x42>	0.0
<0x43>	0.0
<0x44>	0.0
<0x45>	0.0
<0x46>	0.0
<0x47>	0.0
<0x48>	0.0
<0x49>	0.0
<0x4A>	0.0
<0x4B>	0.0
<0x4C>	0.0
<0x4D>	0.0
<0x4E>	0.0
<0x4F>	0.0
<0x50>	0.0
<0x51>	0.0
<0x52>	0.0
<0x53>	0.0
<0x54>	0.0
<0x55>	0.0
<0x56>	0.0
<0x57>	0.0
<0x58>	0.0
<0x59>	0.0
<0x5A>	0.0
<0x5B>	0.0
<0x5C>	0.0
<0x5D>	0.0
<0x5E>	0.0
<0x5F>	0.0
<0x60>	0.0
<0x61>	0.0
<0x62>	0.0
<0x63>	0.0
<0x64>	0.0
<0x65>	0.0
<0x66>	0.0
<0x67>	0.0
<0x68>	0.0
<0x69>	0.0
<0x6A>	0.0
<0x6B>	0.0
<0x6C>	0.0
<0x6D>	0.0
<0x6E>	0.0
<0x6F>	0.0
<0x70>	0.0
<0x71>	0.0
<0x72>	0.0
<0x73>	0.0
<0x74>	0.0
<0x75>	0.0
<0x76>	0.0
<0x77>	0.0
<0x78>	0.0
<0x79>	0.0
<0x7A>	0.0
<0x7B>	0.0
<0x7C>	0.0
<0x7D>	0.0
<0x7E>	0.0
<0x7F>	0.0
<0x80>	0.0
<0x81>	0.0
<0x82>	0.0
<0x83>	0.0
<0x84>	0.0
<0x85>	0.0
<0x86>	0.0
<0x87>	0.0
<0x88>	0.0
<0x89>	0.0
<0x8A>	0.0
<0x8B>	0.0
<0x8C>	0.0
<0x8D>	0.0
<0x8E>	0.0
<0x8F>	0.0
<0x90>	0.0
<0x91>	0.0
<0x92>	0.0
<0x93>	0.0
<0x94>	0.0
<0x95>	0.0
<0x96>	0.0
<0x97>	0.0
<0x98>	0.0
<0x99>	0.0
<0x9A>	0.0
<0x9B>	0.0
<0x9C>	0.0
<0x9D>	0.0
<0x9E>	0.0
<0x9F>	0.0
<0xA0>	0.0
<0xA1>	0.0
<0xA2>	0.0
<0xA3>	0.0
<0xA4>	0.0
<0xA5>	0.0
<0xA6>	0.0
<0xA7>	0.0
<0xA8>	0.0
<0xA9>	0.0
<0xAA>	0.0
<0xAB>	0.0
<0xAC>	0.0
<0xAD>	0.0
<0xAE>	0.0
<0xAF>	0.0
<0xB0>	0.0
<0xB1>	0.0
<0xB2>	0.0
<0xB3>	0.0
<0xB4>	0.0
<0xB5>	0.0
<0xB6>	0.0
<0xB7>	0.0
<0xB8>	0.0
<0xB9>	0.0
<0xBA>	0.0
<0xBB>	0.0
<0xBC>	0.0
<0xBD>	0.0
<0xBE>	0.0
<0xBF>	0.0
<0xC0>	0.0
<0xC1>	0.0
<0xC2>	0.0
<0xC3>	0.0
<0xC4>	0.0
<0xC5>	0.0
<0xC6>	0.0
<0xC7>	0.0
<0xC8>	0.0
<0xC9>	0.0
<0xCA>	0.0
<0xCB>	0.0
<0xCC>	0.0
<0xCD>	0.0
<0xCE>	0.0
<0xCF>	0.0
<0xD0>	0.0
<0xD1>	0.0
<0xD2>	0.0
<0xD3>	0.0
<0xD4>	0.0
<0xD5>	0.0
<0xD6>	0.0
<0xD7>	0.0
<0xD8>	0.0
<0xD9>	0.0
<0xDA>	0.0
<0xDB>	0.0
<0xDC>	0.0
<0xDD>	0.0
<0xDE>	0.0
<0xDF>	0.0
<0xE0>	0.0
<0xE1>	0.0
<0xE2>	0.0
<0xE3>	0.0
<0xE4>	0.0
<0xE5>	0.0
<0xE6>	0.0
<0xE7>	0.0
<0xE8>	0.0
<0xE9>	0.0
<0xEA>	0.0
<0xEB>	0.0
<0xEC>	0.0
<0xED>	0.0
<0xEE>	0.0
<0xEF>	0.0
<0xF0>	0.0
<0xF1>	0.0
<0xF2>	0.0
<0xF3>	0.0
<0xF4>	0.0
<0xF5>	0.0
<0xF6>	0.0
<0xF7>	0.0
<0xF8>	0.0
<0xF9>	0.0
<0xFA>	0.0
<0xFB>	0.0
<0xFC>	0.0
<0xFD>	0.0
<0xFE>	0.0
<0xFF>	0.0
":	-0.0
,"	-1.0
":"	-2.0
","	-3.0
re	-4.0
ti	-5.0
on	-6.0
ri	-7.0
me	-8.0
{"	-9.0
de	-10.0
tion	-11.0
te	-12.0
sc	-13.0
ame	-14.0
ption	-15.0
▁t	-16.0
scri	-17.0
he	-18.0
scription	-19.0
":{"	-20.0
description	-21.0
.","	-22.0
pe	-23.0
ar	-24.0
st	-25.0
}}	-26.0
▁a	-27.0
ng	-28.0
qu	-29.0
or	-30.0
ty	-31.0
name	-32.0
se	-33.0
le	-34.0
red	-35.0
type	-36.0
requ	-37.0
ired	-38.0
required	-39.0
▁the	-40.0
ter	-41.0
al	-42.0
ue	-43.0
nt	-44.0
tr	-45.0
ring	-46.0
▁f	-47.0
in	-48.0
▁c	-49.0
true	-50.0
par	-51.0
▁to	-52.0
string	-53.0
ters	-54.0
parame	-55.0
parameters	-56.0
▁o	-57.0
er	-58.0
}}}	-59.0
▁s	-60.0
,{"	-61.0
ge	-62.0
ic	-63.0
▁of	-64.0
an	-65.0
}}},{"	-66.0
The	-67.0
▁'	-68.0
ve	-69.0
di	-70.0
ur	-71.0
ate	-72.0
▁p	-73.0
},"	-74.0
ac	-75.0
li	-76.0
um	-77.0
at	-78.0
▁e	-79.0
alse	-80.0
ation	-81.0
▁or	-82.0
▁for	-83.0
il	-84.0
▁m	-85.0
false	-86.0
▁b	-87.0
▁[	-88.0
▁re	-89.0
ro	-90.0
ab	-91.0
nd	-92.0
ss	-93.0
▁[{"	-94.0
it	-95.0
get	-96.0
ber	-97.0
',	-98.0
▁n	-99.0
▁in	-100.0
lo	-101.0
umber	-102.0
▁w	-103.0
ce	-104.0
ch	-105.0
ment	-106.0
to	-107.0
▁u	-108.0
▁i	-109.0
et	-110.0
▁d	-111.0
able	-112.0
la	-113.0
ou	-114.0
oo	-115.0
ci	-116.0
▁se	-117.0
ing	-118.0
en	-119.0
age	-120.0
fi	-121.0
time	-122.0
number	-123.0
▁de	-124.0
gu	-125.0
ments	-126.0
ck	-127.0
ont	-128.0
ice	-129.0
argu	-130.0
arguments	-131.0
id	-132.0
urre	-133.0
ho	-134.0
▁and	-135.0
▁curre	-136.0
vice	-137.0
'.","	-138.0
list	-139.0
xt	-140.0
}}]	-141.0
▁spe	-142.0
fic	-143.0
▁di	-144.0
▁current	-145.0
ail	-146.0
vi	-147.0
act	-148.0
▁me	-149.0
boo	-150.0
us	-151.0
ed	-152.0
ontact	-153.0
▁st	-154.0
▁name	-155.0
om	-156.0
▁speci	-157.0
lean	-158.0
art	-159.0
ode	-160.0
boolean	-161.0
tem	-162.0
ol	-163.0
ra	-164.0
ub	-165.0
":{	-166.0
ct	-167.0
text	-168.0
}},{"	-169.0
per	-170.0
der	-171.0
}}}]	-172.0
ne	-173.0
nti	-174.0
ser	-175.0
ount	-176.0
▁an	-177.0
heck	-178.0
her	-179.0
▁on	-180.0
es	-181.0
lay	-182.0
pp	-183.0
ha	-184.0
ptional	-185.0
ay	-186.0
ni	-187.0
ute	-188.0
min	-189.0
set	-190.0
▁g	-191.0
ance	-192.0
ding	-193.0
ly	-194.0
▁time	-195.0
ile	-196.0
▁dis	-197.0
denti	-198.0
ad	-199.0
gh	-200.0
arch	-201.0
ul	-202.0
▁specific	-203.0
▁ac	-204.0
▁identi	-205.0
fier	-206.0
▁ne	-207.0
pen	-208.0
am	-209.0
ord	-210.0
si	-211.0
eve	-212.0
▁al	-213.0
date	-214.0
ack	-215.0
▁"	-216.0
loc	-217.0
one	-218.0
ak	-219.0
▁contact	-220.0
hi	-221.0
gg	-222.0
▁I	-223.0
utes	-224.0
Optional	-225.0
que	-226.0
ght	-227.0
ting	-228.0
ure	-229.0
":{}},{"	-230.0
▁tr	-231.0
▁identifier	-232.0
▁list	-233.0
ther	-234.0
mail	-235.0
Ret	-236.0
urn	-237.0
as	-238.0
ory	-239.0
▁no	-240.0
"}}]	-241.0
▁con	-242.0
uration	-243.0
location	-244.0
un	-245.0
nique	-246.0
je	-247.0
atus	-248.0
▁unique	-249.0
ssage	-250.0
cy	-251.0
ith	-252.0
nable	-253.0
▁with	-254.0
ssi	-255.0
Whe	-256.0
ir	-257.0
con	-258.0
ubscription	-259.0
arget	-260.0
ard	-261.0
▁text	-262.0
rieve	-263.0
ow	-264.0
Whether	-265.0
enable	-266.0
rom	-267.0
▁disable	-268.0
ilter	-269.0
▁le	-270.0
lu	-271.0
sti	-272.0
reen	-273.0
screen	-274.0
vel	-275.0
for	-276.0
ted	-277.0
reate	-278.0
▁by	-279.0
ggle	-280.0
no	-281.0
":"'	-282.0
clu	-283.0
▁v	-284.0
contact	-285.0
th	-286.0
play	-287.0
gen	-288.0
Name	-289.0
Retrieve	-290.0
ma	-291.0
enabled	-292.0
▁li	-293.0
is	-294.0
ject	-295.0
▁au	-296.0
▁pro	-297.0
hoto	-298.0
ery	-299.0
pdate	-300.0
▁1	-301.0
▁from	-302.0
od	-303.0
ost	-304.0
ary	-305.0
start	-306.0
▁new	-307.0
▁ser	-308.0
▁k	-309.0
▁so	-310.0
fe	-311.0
cent	-312.0
Retrieves	-313.0
hare	-314.0
ress	-315.0
op	-316.0
hic	-317.0
▁min	-318.0
▁app	-319.0
ut	-320.0
toggle	-321.0
▁service	-322.0
▁acti	-323.0
Set	-324.0
mat	-325.0
all	-326.0
ten	-327.0
Se	-328.0
action	-329.0
omp	-330.0
▁date	-331.0
ud	-332.0
Tr	-333.0
check	-334.0
ort	-335.0
▁false	-336.0
▁ex	-337.0
▁qu	-338.0
▁file	-339.0
du	-340.0
ction	-341.0
ast	-342.0
minder	-343.0
▁be	-344.0
clude	-345.0
tit	-346.0
nation	-347.0
dd	-348.0
▁user	-349.0
stination	-350.0
ind	-351.0
▁per	-352.0
vity	-353.0
ant	-354.0
lete	-355.0
Get	-356.0
ssion	-357.0
ateg	-358.0
au	-359.0
ase	-360.0
mode	-361.0
▁ro	-362.0
sh	-363.0
im	-364.0
00	-365.0
vent	-366.0
dio	-367.0
":{}}]	-368.0
▁number	-369.0
mit	-370.0
oal	-371.0
ategory	-372.0
▁email	-373.0
pl	-374.0
el	-375.0
log	-376.0
▁device	-377.0
▁message	-378.0
ze	-379.0
True	-380.0
▁(	-381.0
ature	-382.0
file	-383.0
▁l	-384.0
▁am	-385.0
ace	-386.0
▁ve	-387.0
▁at	-388.0
▁location	-389.0
Re	-390.0
▁as	-391.0
minutes	-392.0
ie	-393.0
▁mode	-394.0
▁target	-395.0
uest	-396.0
ave	-397.0
count	-398.0
▁enable	-399.0
▁minutes	-400.0
perature	-401.0
ver	-402.0
▁la	-403.0
ler	-404.0
▁pe	-405.0
▁all	-406.0
temperature	-407.0
▁ma	-408.0
cle	-409.0
day	-410.0
app	-411.0
title	-412.0
▁filter	-413.0
Check	-414.0
dia	-415.0
ations	-416.0
▁subscription	-417.0
ns	-418.0
av	-419.0
status	-420.0
mo	-421.0
form	-422.0
ans	-423.0
mer	-424.0
▁duration	-425.0
lock	-426.0
fied	-427.0
ke	-428.0
ubject	-429.0
ake	-430.0
ata	-431.0
▁pl	-432.0
we	-433.0
hicle	-434.0
▁event	-435.0
ore	-436.0
arm	-437.0
search	-438.0
tific	-439.0
▁screen	-440.0
ling	-441.0
▁ho	-442.0
out	-443.0
▁he	-444.0
▁status	-445.0
",	-446.0
▁format	-447.0
word	-448.0
▁S	-449.0
▁session	-450.0
device	-451.0
▁specified	-452.0
▁photo	-453.0
▁my	-454.0
ts	-455.0
cip	-456.0
ine	-457.0
acti	-458.0
ork	-459.0
ates	-460.0
service	-461.0
ated	-462.0
low	-463.0
▁su	-464.0
ood	-465.0
port	-466.0
create	-467.0
mary	-468.0
▁comp	-469.0
▁rec	-470.0
).","	-471.0
▁note	-472.0
duration	-473.0
▁C	-474.0
oc	-475.0
nsor	-476.0
▁h	-477.0
▁item	-478.0
king	-479.0
tent	-480.0
▁is	-481.0
▁y	-482.0
ld	-483.0
▁level	-484.0
▁vi	-485.0
De	-486.0
▁reminder	-487.0
fa	-488.0
ummary	-489.0
Enable	-490.0
aily	-491.0
subscription	-492.0
ient	-493.0
pro	-494.0
ys	-495.0
ive	-496.0
nge	-497.0
ep	-498.0
▁recent	-499.0
▁off	-500.0
▁amount	-501.0
gency	-502.0
▁fe	-503.0
▁un	-504.0
▁us	-505.0
mergency	-506.0
▁track	-507.0
▁guest	-508.0
pic	-509.0
light	-510.0
"}},{"	-511.0
inten	-512.0
message	-513.0
ancel	-514.0
uman	-515.0
amount	-516.0
YY	-517.0
▁mo	-518.0
▁sc	-519.0
▁add	-520.0
ity	-521.0
ath	-522.0
▁we	-523.0
▁it	-524.0
atch	-525.0
▁active	-526.0
update	-527.0
bo	-528.0
▁code	-529.0
own	-530.0
▁ID	-531.0
St	-532.0
▁auto	-533.0
▁set	-534.0
include	-535.0
▁r	-536.0
note	-537.0
▁destination	-538.0
▁U	-539.0
▁check	-540.0
so	-541.0
▁play	-542.0
hone	-543.0
▁category	-544.0
urce	-545.0
ystem	-546.0
▁[]	-547.0
do	-548.0
hedu	-549.0
sho	-550.0
hist	-551.0
▁ret	-552.0
hedule	-553.0
fy	-554.0
val	-555.0
send	-556.0
▁such	-557.0
email	-558.0
ark	-559.0
ag	-560.0
ong	-561.0
ass	-562.0
pense	-563.0
faul	-564.0
Create	-565.0
tifications	-566.0
▁ar	-567.0
.,	-568.0
▁media	-569.0
▁M	-570.0
new	-571.0
▁if	-572.0
Search	-573.0
filter	-574.0
ould	-575.0
▁bil	-576.0
ning	-577.0
ather	-578.0
ading	-579.0
ater	-580.0
intenance	-581.0
Start	-582.0
urns	-583.0
stop	-584.0
▁pri	-585.0
▁goal	-586.0
▁timer	-587.0
lant	-588.0
cted	-589.0
▁sh	-590.0
leep	-591.0
back	-592.0
ume	-593.0
▁optional	-594.0
▁{"	-595.0
ype	-596.0
query	-597.0
history	-598.0
cial	-599.0
wit	-600.0
timer	-601.0
right	-602.0
▁sm	-603.0
ust	-604.0
cast	-605.0
▁share	-606.0
com	-607.0
ild	-608.0
pri	-609.0
add	-610.0
ded	-611.0
▁title	-612.0
medi	-613.0
ap	-614.0
che	-615.0
▁audio	-616.0
lash	-617.0
ngu	-618.0
▁activity	-619.0
nguage	-620.0
cipient	-621.0
▁ch	-622.0
▁you	-623.0
▁temperature	-624.0
▁pet	-625.0
po	-626.0
▁currently	-627.0
▁z	-628.0
▁smart	-629.0
ds	-630.0
▁H	-631.0
photo	-632.0
▁T	-633.0
abel	-634.0
Send	-635.0
ride	-636.0
▁im	-637.0
ords	-638.0
▁sensor	-639.0
▁th	-640.0
▁base	-641.0
▁ti	-642.0
bum	-643.0
tal	-644.0
ym	-645.0
▁2	-646.0
▁si	-647.0
▁vehicle	-648.0
ven	-649.0
▁query	-650.0
assword	-651.0
udget	-652.0
ll	-653.0
his	-654.0
▁include	-655.0
atform	-656.0
▁address	-657.0
▁based	-658.0
▁j	-659.0
▁up	-660.0
▁res	-661.0
open	-662.0
ayment	-663.0
▁search	-664.0
eting	-665.0
▁content	-666.0
▁par	-667.0
liance	-668.0
og	-669.0
fault	-670.0
▁A	-671.0
▁usage	-672.0
card	-673.0
▁display	-674.0
level	-675.0
destination	-676.0
udy	-677.0
atter	-678.0
▁co	-679.0
ist	-680.0
older	-681.0
▁day	-682.0
uti	-683.0
ain	-684.0
ffic	-685.0
goal	-686.0
ask	-687.0
Number	-688.0
ncy	-689.0
gation	-690.0
▁P	-691.0
▁pre	-692.0
est	-693.0
aving	-694.0
conds	-695.0
row	-696.0
share	-697.0
ale	-698.0
deo	-699.0
gger	-700.0
work	-701.0
▁recipient	-702.0
ooking	-703.0
amera	-704.0
rigger	-705.0
▁mile	-706.0
riod	-707.0
▁turn	-708.0
ual	-709.0
▁reading	-710.0
eding	-711.0
Open	-712.0
Returns	-713.0
int	-714.0
▁UR	-715.0
lease	-716.0
subject	-717.0
▁daily	-718.0
▁save	-719.0
▁maintenance	-720.0
▁update	-721.0
Add	-722.0
attery	-723.0
indow	-724.0
▁trans	-725.0
request	-726.0
ff	-727.0
event	-728.0
oll	-729.0
spe	-730.0
item	-731.0
lashcard	-732.0
pet	-733.0
tic	-734.0
ren	-735.0
witch	-736.0
iz	-737.0
ex	-738.0
▁system	-739.0
▁ha	-740.0
.",	-741.0
erate	-742.0
utine	-743.0
uri	-744.0
onth	-745.0
stant	-746.0
▁po	-747.0
by	-748.0
activity	-749.0
human	-750.0
▁whe	-751.0
book	-752.0
res	-753.0
ous	-754.0
▁data	-755.0
reminder	-756.0
duct	-757.0
dis	-758.0
archive	-759.0
Con	-760.0
post	-761.0
▁arti	-762.0
category	-763.0
put	-764.0
▁end	-765.0
Te	-766.0
▁read	-767.0
imum	-768.0
ngth	-769.0
▁food	-770.0
▁URL	-771.0
mile	-772.0
▁type	-773.0
ink	-774.0
▁com	-775.0
shot	-776.0
audio	-777.0
med	-778.0
▁notifications	-779.0
▁cy	-780.0
top	-781.0
lue	-782.0
default	-783.0
track	-784.0
▁social	-785.0
mediate	-786.0
▁emergency	-787.0
▁sho	-788.0
delete	-789.0
▁items	-790.0
gn	-791.0
▁na	-792.0
be	-793.0
▁comple	-794.0
summary	-795.0
▁water	-796.0
itation	-797.0
▁W	-798.0
code	-799.0
▁conne	-800.0
ome	-801.0
▁page	-802.0
▁dete	-803.0
ric	-804.0
afe	-805.0
trol	-806.0
urs	-807.0
target	-808.0
▁total	-809.0
ails	-810.0
board	-811.0
ches	-812.0
ran	-813.0
ody	-814.0
▁plant	-815.0
up	-816.0
▁percent	-817.0
▁post	-818.0
user	-819.0
▁5	-820.0
avings	-821.0
▁open	-822.0
▁billing	-823.0
vehicle	-824.0
▁can	-825.0
lose	-826.0
vert	-827.0
nter	-828.0
▁send	-829.0
ill	-830.0
▁limit	-831.0
reak	-832.0
▁alarm	-833.0
▁summary	-834.0
tails	-835.0
▁ra	-836.0
▁album	-837.0
▁stop	-838.0
▁delete	-839.0
▁3	-840.0
generate	-841.0
▁inter	-842.0
▁please	-843.0
ness	-844.0
▁percentage	-845.0
▁te	-846.0
rate	-847.0
▁schedule	-848.0
▁do	-849.0
afety	-850.0
▁should	-851.0
pli	-852.0
plan	-853.0
▁provi	-854.0
ull	-855.0
▁task	-856.0
ollow	-857.0
oth	-858.0
▁aler	-859.0
▁topic	-860.0
ram	-861.0
estion	-862.0
Rec	-863.0
▁like	-864.0
ry	-865.0
▁meeting	-866.0
ffe	-867.0
alth	-868.0
ication	-869.0
dition	-870.0
na	-871.0
▁cha	-872.0
▁next	-873.0
▁path	-874.0
coming	-875.0
fir	-876.0
air	-877.0
▁R	-878.0
stance	-879.0
▁call	-880.0
rection	-881.0
.0	-882.0
usic	-883.0
rid	-884.0
▁account	-885.0
▁G	-886.0
▁weather	-887.0
mber	-888.0
ps	-889.0
fore	-890.0
▁du	-891.0
▁subject	-892.0
str	-893.0
curre	-894.0
▁val	-895.0
▁this	-896.0
tooth	-897.0
luetooth	-898.0
are	-899.0
gress	-900.0
▁return	-901.0
▁cancel	-902.0
ause	-903.0
▁cycle	-904.0
Text	-905.0
▁start	-906.0
ximum	-907.0
mated	-908.0
pre	-909.0
▁language	-910.0
ily	-911.0
ency	-912.0
Records	-913.0
ight	-914.0
▁recor	-915.0
ude	-916.0
fr	-917.0
cancel	-918.0
ati	-919.0
emergency	-920.0
▁match	-921.0
playlist	-922.0
limit	-923.0
amily	-924.0
▁B	-925.0
niti	-926.0
ror	-927.0
▁count	-928.0
▁ab	-929.0
ctor	-930.0
vigation	-931.0
down	-932.0
lip	-933.0
mediately	-934.0
▁home	-935.0
▁0	-936.0
rip	-937.0
ordin	-938.0
nue	-939.0
rase	-940.0
▁sleep	-941.0
nding	-942.0
▁out	-943.0
▁plan	-944.0
active	-945.0
Initi	-946.0
unit	-947.0
▁met	-948.0
▁setting	-949.0
rightness	-950.0
room	-951.0
▁bet	-952.0
olume	-953.0
▁10	-954.0
ek	-955.0
ori	-956.0
▁identify	-957.0
hrase	-958.0
▁playlist	-959.0
alend	-960.0
irror	-961.0
phone	-962.0
▁study	-963.0
▁tracking	-964.0
rec	-965.0
Target	-966.0
▁connected	-967.0
stone	-968.0
line	-969.0
trans	-970.0
hite	-971.0
":1	-972.0
aper	-973.0
alendar	-974.0
nal	-975.0
ving	-976.0
▁air	-977.0
▁payment	-978.0
ner	-979.0
▁D	-980.0
Turn	-981.0
sius	-982.0
▁inclu	-983.0
▁coordin	-984.0
speed	-985.0
▁des	-986.0
▁budget	-987.0
▁including	-988.0
Description	-989.0
ween	-990.0
Delete	-991.0
rone	-992.0
comp	-993.0
mitted	-994.0
url	-995.0
▁light	-996.0
▁between	-997.0
▁down	-998.0
▁that	-999.0
label	-1000.0
▁venue	-1001.0
wi	-1002.0
ey	-1003.0
Play	-1004.0
arran	-1005.0
▁change	-1006.0
Share	-1007.0
▁image	-1008.0
isting	-1009.0
ron	-1010.0
▁human	-1011.0
▁flashcard	-1012.0
▁existing	-1013.0
ip	-1014.0
▁value	-1015.0
▁readable	-1016.0
atering	-1017.0
food	-1018.0
site	-1019.0
page	-1020.0
▁action	-1021.0
▁col	-1022.0
cha	-1023.0
amp	-1024.0
take	-1025.0
data	-1026.0
▁speed	-1027.0
▁request	-1028.0
▁true	-1029.0
▁completed	-1030.0
▁reg	-1031.0
ocab	-1032.0
▁F	-1033.0
guest	-1034.0
content	-1035.0
vo	-1036.0
▁video	-1037.0
▁feeding	-1038.0
ook	-1039.0
requency	-1040.0
▁transaction	-1041.0
ocabul	-1042.0
mation	-1043.0
ocabulary	-1044.0
▁folder	-1045.0
source	-1046.0
mark	-1047.0
▁mi	-1048.0
▁hi	-1049.0
20	-1050.0
▁child	-1051.0
and	-1052.0
▁project	-1053.0
sensor	-1054.0
▁п	-1055.0
daily	-1056.0
▁parti	-1057.0
▁days	-1058.0
MM	-1059.0
ravel	-1060.0
▁about	-1061.0
change	-1062.0
tation	-1063.0
size	-1064.0
Fi	-1065.0
stri	-1066.0
▁trail	-1067.0
cipant	-1068.0
weather	-1069.0
▁was	-1070.0
▁phone	-1071.0
▁word	-1072.0
▁last	-1073.0
ick	-1074.0
▁loc	-1075.0
▁route	-1076.0
▁camera	-1077.0
sleep	-1078.0
arranty	-1079.0
▁omitted	-1080.0
▁routine	-1081.0
lear	-1082.0
ush	-1083.0
matic	-1084.0
ach	-1085.0
door	-1086.0
▁appliance	-1087.0
▁period	-1088.0
ocus	-1089.0
zone	-1090.0
▁order	-1091.0
lin	-1092.0
Ad	-1093.0
ical	-1094.0
password	-1095.0
▁run	-1096.0
days	-1097.0
plit	-1098.0
block	-1099.0
▁platform	-1100.0
▁car	-1101.0
▁flight	-1102.0
currency	-1103.0
child	-1104.0
▁line	-1105.0
hich	-1106.0
schedule	-1107.0
main	-1108.0
image	-1109.0
▁TV	-1110.0
sta	-1111.0
alc	-1112.0
▁battery	-1113.0
way	-1114.0
▁cooking	-1115.0
yle	-1116.0
▁history	-1117.0
call	-1118.0
▁log	-1119.0
platform	-1120.0
pending	-1121.0
face	-1122.0
ridge	-1123.0
sson	-1124.0
tt	-1125.0
wifi	-1126.0
rect	-1127.0
alcul	-1128.0
▁upcoming	-1129.0
-1	-1130.0
control	-1131.0
▁mon	-1132.0
▁assi	-1133.0
auto	-1134.0
▁details	-1135.0
off	-1136.0
find	-1137.0
Creates	-1138.0
▁L	-1139.0
To	-1140.0
newal	-1141.0
▁participant	-1142.0
ste	-1143.0
acity	-1144.0
tered	-1145.0
ock	-1146.0
▁most	-1147.0
▁fin	-1148.0
▁stre	-1149.0
▁E	-1150.0
▁poll	-1151.0
load	-1152.0
month	-1153.0
▁window	-1154.0
very	-1155.0
▁use	-1156.0
met	-1157.0
tom	-1158.0
sity	-1159.0
▁their	-1160.0
▁с	-1161.0
ower	-1162.0
▁show	-1163.0
▁deck	-1164.0
Fet	-1165.0
▁need	-1166.0
▁retrieve	-1167.0
ble	-1168.0
▁Wi	-1169.0
Adds	-1170.0
Update	-1171.0
trail	-1172.0
gre	-1173.0
Initiates	-1174.0
▁unit	-1175.0
▁seconds	-1176.0
▁fore	-1177.0
YYYY	-1178.0
seconds	-1179.0
Updates	-1180.0
▁remain	-1181.0
appliance	-1182.0
▁appl	-1183.0
:00	-1184.0
moke	-1185.0
ries	-1186.0
▁int	-1187.0
45	-1188.0
▁feed	-1189.0
▁inform	-1190.0
▁work	-1191.0
etwork	-1192.0
just	-1193.0
ft	-1194.0
lation	-1195.0
DD	-1196.0
▁source	-1197.0
notes	-1198.0
front	-1199.0
▁saved	-1200.0
▁YYYY	-1201.0
aler	-1202.0
▁maximum	-1203.0
▁information	-1204.0
Sets	-1205.0
▁N	-1206.0
▁н	-1207.0
▁article	-1208.0
Travel	-1209.0
▁automatic	-1210.0
Log	-1211.0
▁J	-1212.0
por	-1213.0
fin	-1214.0
▁long	-1215.0
language	-1216.0
grees	-1217.0
Take	-1218.0
▁local	-1219.0
Fetches	-1220.0
▁description	-1221.0
').","	-1222.0
screenshot	-1223.0
▁degrees	-1224.0
move	-1225.0
mileage	-1226.0
▁password	-1227.0
▁uh	-1228.0
▁when	-1229.0
tification	-1230.0
dete	-1231.0
urring	-1232.0
tra	-1233.0
▁before	-1234.0
ressure	-1235.0
▁gen	-1236.0
▁over	-1237.0
▁ride	-1238.0
▁using	-1239.0
VP	-1240.0
follow	-1241.0
nsi	-1242.0
system	-1243.0
dri	-1244.0
▁forecast	-1245.0
notifications	-1246.0
ality	-1247.0
▁back	-1248.0
▁safety	-1249.0
hod	-1250.0
▁room	-1251.0
cling	-1252.0
save	-1253.0
display	-1254.0
▁rate	-1255.0
gear	-1256.0
body	-1257.0
watch	-1258.0
path	-1259.0
▁man	-1260.0
▁song	-1261.0
plant	-1262.0
late	-1263.0
▁are	-1264.0
▁question	-1265.0
next	-1266.0
▁guests	-1267.0
▁health	-1268.0
sition	-1269.0
bol	-1270.0
▁ob	-1271.0
So	-1272.0
▁into	-1273.0
▁savings	-1274.0
username	-1275.0
match	-1276.0
Trigger	-1277.0
ward	-1278.0
▁messages	-1279.0
nect	-1280.0
▁interval	-1281.0
urifier	-1282.0
Stop	-1283.0
folder	-1284.0
ymbol	-1285.0
pon	-1286.0
isture	-1287.0
ene	-1288.0
from	-1289.0
▁tra	-1290.0
▁wh	-1291.0
01	-1292.0
led	-1293.0
titude	-1294.0
media	-1295.0
payment	-1296.0
▁phrase	-1297.0
rams	-1298.0
▁give	-1299.0
▁member	-1300.0
▁vo	-1301.0
▁focus	-1302.0
▁white	-1303.0
ew	-1304.0
▁application	-1305.0
apacity	-1306.0
▁kil	-1307.0
formed	-1308.0
▁diaper	-1309.0
arge	-1310.0
window	-1311.0
deck	-1312.0
aker	-1313.0
order	-1314.0
AC	-1315.0
▁condition	-1316.0
▁settings	-1317.0
den	-1318.0
▁performed	-1319.0
▁fil	-1320.0
fficul	-1321.0
▁spending	-1322.0
ntry	-1323.0
period	-1324.0
noo	-1325.0
VAC	-1326.0
▁door	-1327.0
▁mil	-1328.0
topic	-1329.0
▁GP	-1330.0
▁during	-1331.0
nooze	-1332.0
▁which	-1333.0
vate	-1334.0
direction	-1335.0
▁lo	-1336.0
alarm	-1337.0
ize	-1338.0
▁dispense	-1339.0
ger	-1340.0
dit	-1341.0
▁string	-1342.0
▁brow	-1343.0
▁HVAC	-1344.0
▁recording	-1345.0
dent	-1346.0
▁GPS	-1347.0
▁kilome	-1348.0
vious	-1349.0
assi	-1350.0
pace	-1351.0
▁zone	-1352.0
camera	-1353.0
ailable	-1354.0
▁remaining	-1355.0
▁coordinates	-1356.0
▁music	-1357.0
▁today	-1358.0
staur	-1359.0
fficulty	-1360.0
▁mileage	-1361.0
▁en	-1362.0
read	-1363.0
▁frequency	-1364.0
ssue	-1365.0
▁в	-1366.0
Email	-1367.0
Gen	-1368.0
staurant	-1369.0
▁K	-1370.0
water	-1371.0
▁gar	-1372.0
▁real	-1373.0
ture	-1374.0
▁respon	-1375.0
battery	-1376.0
ia	-1377.0
ptions	-1378.0
inner	-1379.0
run	-1380.0
▁place	-1381.0
99	-1382.0
▁recurring	-1383.0
▁renewal	-1384.0
cess	-1385.0
▁given	-1386.0
vp	-1387.0
apply	-1388.0
figu	-1389.0
▁calendar	-1390.0
ses	-1391.0
▁fan	-1392.0
▁alert	-1393.0
cident	-1394.0
.5	-1395.0
week	-1396.0
ta	-1397.0
study	-1398.0
▁month	-1399.0
video	-1400.0
stamp	-1401.0
bed	-1402.0
nder	-1403.0
▁watering	-1404.0
▁participants	-1405.0
bre	-1406.0
▁product	-1407.0
▁av	-1408.0
▁dri	-1409.0
pm	-1410.0
▁length	-1411.0
son	-1412.0
arby	-1413.0
place	-1414.0
ating	-1415.0
alance	-1416.0
▁notification	-1417.0
flight	-1418.0
hours	-1419.0
project	-1420.0
▁genre	-1421.0
▁clip	-1422.0
product	-1423.0
▁expense	-1424.0
clear	-1425.0
vac	-1426.0
▁night	-1427.0
Type	-1428.0
▁its	-1429.0
end	-1430.0
▁cre	-1431.0
yz	-1432.0
curi	-1433.0
▁ir	-1434.0
▁esti	-1435.0
budget	-1436.0
▁д	-1437.0
▁з	-1438.0
bluetooth	-1439.0
та	-1440.0
mirror	-1441.0
ok	-1442.0
feeding	-1443.0
▁resul	-1444.0
▁um	-1445.0
▁artist	-1446.0
fo	-1447.0
curity	-1448.0
55	-1449.0
figures	-1450.0
striction	-1451.0
items	-1452.0
elsius	-1453.0
close	-1454.0
▁progress	-1455.0
▁med	-1456.0
▁distance	-1457.0
ital	-1458.0
▁м	-1459.0
▁100	-1460.0
Configures	-1461.0
sk	-1462.0
ulti	-1463.0
ats	-1464.0
'.	-1465.0
▁ref	-1466.0
23	-1467.0
▁tran	-1468.0
justs	-1469.0
lood	-1470.0
▁Celsius	-1471.0
▁get	-1472.0
meter	-1473.0
bile	-1474.0
▁cons	-1475.0
▁estimated	-1476.0
lines	-1477.0
▁key	-1478.0
▁milestone	-1479.0
fridge	-1480.0
ai	-1481.0
dometer	-1482.0
▁exp	-1483.0
▁ad	-1484.0
tivity	-1485.0
savings	-1486.0
Adjusts	-1487.0
▁desired	-1488.0
orrow	-1489.0
ces	-1490.0
km	-1491.0
▁odometer	-1492.0
arding	-1493.0
▁timestamp	-1494.0
ion	-1495.0
▁De	-1496.0
olic	-1497.0
▁network	-1498.0
car	-1499.0
parated	-1500.0
▁now	-1501.0
▁por	-1502.0
▁alerts	-1503.0
▁conditions	-1504.0
ja	-1505.0
Ex	-1506.0
ru	-1507.0
▁oven	-1508.0
album	-1509.0
format	-1510.0
▁vis	-1511.0
▁vocabulary	-1512.0
today	-1513.0
separated	-1514.0
turn	-1515.0
distance	-1516.0
routine	-1517.0
temp	-1518.0
co	-1519.0
erci	-1520.0
▁entry	-1521.0
account	-1522.0
▁screenshot	-1523.0
rigation	-1524.0
oom	-1525.0
▁have	-1526.0
▁could	-1527.0
▁fee	-1528.0
livery	-1529.0
oven	-1530.0
ose	-1531.0
scribe	-1532.0
▁inv	-1533.0
▁ano	-1534.0
tain	-1535.0
last	-1536.0
bi	-1537.0
▁body	-1538.0
▁je	-1539.0
firmation	-1540.0
▁navigation	-1541.0
▁moisture	-1542.0
Save	-1543.0
▁available	-1544.0
itor	-1545.0
30	-1546.0
ка	-1547.0
feed	-1548.0
raw	-1549.0
maintenance	-1550.0
▁citation	-1551.0
side	-1552.0
this	-1553.0
▁currency	-1554.0
▁another	-1555.0
▁soil	-1556.0
▁updates	-1557.0
▁(0	-1558.0
▁ste	-1559.0
navigation	-1560.0
switch	-1561.0
arti	-1562.0
ventory	-1563.0
то	-1564.0
max	-1565.0
▁immediately	-1566.0
idget	-1567.0
mi	-1568.0
▁sha	-1569.0
▁bre	-1570.0
cur	-1571.0
mote	-1572.0
record	-1573.0
imize	-1574.0
rs	-1575.0
},	-1576.0
und	-1577.0
ies	-1578.0
inter	-1579.0
Source	-1580.0
▁contacts	-1581.0
▁services	-1582.0
Toggle	-1583.0
progress	-1584.0
arning	-1585.0
▁archive	-1586.0
▁volume	-1587.0
▁photos	-1588.0
sub	-1589.0
ties	-1590.0
▁traffic	-1591.0
▁where	-1592.0
▁perform	-1593.0
ра	-1594.0
SO	-1595.0
flashcard	-1596.0
▁tier	-1597.0
▁hour	-1598.0
drone	-1599.0
medium	-1600.0
let	-1601.0
vas	-1602.0
▁subscriptions	-1603.0
▁smoke	-1604.0
▁optionally	-1605.0
▁cancellation	-1606.0
session	-1607.0
▁card	-1608.0
▁family	-1609.0
ob	-1610.0
▁bu	-1611.0
▁detector	-1612.0
▁lesson	-1613.0
▁kilometers	-1614.0
▁pressure	-1615.0
sm	-1616.0
rash	-1617.0
ech	-1618.0
▁ter	-1619.0
▁dig	-1620.0
instant	-1621.0
ntil	-1622.0
▁assign	-1623.0
ence	-1624.0
SVP	-1625.0
tate	-1626.0
adlines	-1627.0
▁scheduled	-1628.0
vation	-1629.0
printer	-1630.0
▁table	-1631.0
Switch	-1632.0
▁RSVP	-1633.0
▁τ	-1634.0
urst	-1635.0
▁browser	-1636.0
▁news	-1637.0
anti	-1638.0
▁apply	-1639.0
wer	-1640.0
88	-1641.0
article	-1642.0
resh	-1643.0
reg	-1644.0
▁downtime	-1645.0
zz	-1646.0
▁output	-1647.0
▁leak	-1648.0
men	-1649.0
rsvp	-1650.0
▁digital	-1651.0
Checks	-1652.0
ph	-1653.0
▁WiFi	-1654.0
ercise	-1655.0
▁hours	-1656.0
▁Bluetooth	-1657.0
▁comment	-1658.0
citation	-1659.0
chen	-1660.0
▁effe	-1661.0
▁instant	-1662.0
▁bill	-1663.0
ade	-1664.0
22	-1665.0
▁one	-1666.0
aby	-1667.0
cycling	-1668.0
ocu	-1669.0
dex	-1670.0
tv	-1671.0
▁drone	-1672.0
▁на	-1673.0
recent	-1674.0
adata	-1675.0
▁keyword	-1676.0
stic	-1677.0
inventory	-1678.0
orning	-1679.0
eb	-1680.0
▁username	-1681.0
▁6	-1682.0
venue	-1683.0
ason	-1684.0
":5	-1685.0
meeting	-1686.0
high	-1687.0
lies	-1688.0
▁printer	-1689.0
▁ble	-1690.0
▁running	-1691.0
▁multi	-1692.0
sed	-1693.0
ution	-1694.0
music	-1695.0
"},	-1696.0
ator	-1697.0
safety	-1698.0
Ma	-1699.0
▁color	-1700.0
How	-1701.0
▁issue	-1702.0
question	-1703.0
▁direction	-1704.0
nges	-1705.0
▁trigger	-1706.0
▁remote	-1707.0
▁obser	-1708.0
▁workout	-1709.0
scene	-1710.0
US	-1711.0
▁=	-1712.0
Pro	-1713.0
tomorrow	-1714.0
▁feeder	-1715.0
▁detection	-1716.0
value	-1717.0
test	-1718.0
▁pr	-1719.0
fer	-1720.0
▁af	-1721.0
warranty	-1722.0
▁trip	-1723.0
workout	-1724.0
pping	-1725.0
▁oil	-1726.0
▁flashcards	-1727.0
▁sub	-1728.0
itations	-1729.0
App	-1730.0
▁quiz	-1731.0
health	-1732.0
▁style	-1733.0
milestone	-1734.0
▁warranty	-1735.0
▁inten	-1736.0
▁been	-1737.0
ml	-1738.0
▁pause	-1739.0
Comp	-1740.0
▁requ	-1741.0
▁size	-1742.0
brightness	-1743.0
layer	-1744.0
nsitivity	-1745.0
rt	-1746.0
alking	-1747.0
Triggers	-1748.0
Subject	-1749.0
▁site	-1750.0
cel	-1751.0
▁full	-1752.0
▁notes	-1753.0
▁bo	-1754.0
col	-1755.0
▁files	-1756.0
▁web	-1757.0
Ti	-1758.0
erates	-1759.0
▁disables	-1760.0
▁effect	-1761.0
Anal	-1762.0
itchen	-1763.0
ditional	-1764.0
▁1.0	-1765.0
▁tak	-1766.0
power	-1767.0
▁split	-1768.0
alerts	-1769.0
If	-1770.0
sten	-1771.0
ен	-1772.0
yzes	-1773.0
Analyzes	-1774.0
gro	-1775.0
clip	-1776.0
Cha	-1777.0
▁за	-1778.0
aj	-1779.0
faults	-1780.0
▁Q	-1781.0
nk	-1782.0
placement	-1783.0
plic	-1784.0
Generates	-1785.0
▁provided	-1786.0
Enables	-1787.0
ire	-1788.0
reading	-1789.0
▁recorded	-1790.0
etch	-1791.0
pot	-1792.0
..	-1793.0
▁8	-1794.0
odcast	-1795.0
▁close	-1796.0
chant	-1797.0
ago	-1798.0
ari	-1799.0
▁AP	-1800.0
picture	-1801.0
aller	-1802.0
▁mobile	-1803.0
▁irrigation	-1804.0
▁right	-1805.0
Label	-1806.0
▁method	-1807.0
unci	-1808.0
letter	-1809.0
▁just	-1810.0
loud	-1811.0
convert	-1812.0
celsius	-1813.0
ally	-1814.0
▁defin	-1815.0
ko	-1816.0
UR	-1817.0
ronunci	-1818.0
checklist	-1819.0
▁city	-1820.0
Li	-1821.0
vid	-1822.0
▁O	-1823.0
Logs	-1824.0
▁required	-1825.0
allery	-1826.0
quiz	-1827.0
gin	-1828.0
eta	-1829.0
gni	-1830.0
▁ele	-1831.0
tab	-1832.0
▁tracker	-1833.0
ronunciation	-1834.0
mari	-1835.0
ро	-1836.0
▁oper	-1837.0
▁Defaults	-1838.0
rics	-1839.0
ele	-1840.0
rol	-1841.0
mic	-1842.0
sing	-1843.0
▁via	-1844.0
member	-1845.0
For	-1846.0
vie	-1847.0
umed	-1848.0
:00'.","	-1849.0
witter	-1850.0
left	-1851.0
)","	-1852.0
▁recom	-1853.0
▁has	-1854.0
▁consumed	-1855.0
resho	-1856.0
reshold	-1857.0
▁watch	-1858.0
style	-1859.0
▁draw	-1860.0
▁provider	-1861.0
news	-1862.0
details	-1863.0
stre	-1864.0
▁push	-1865.0
verage	-1866.0
▁rotation	-1867.0
0}}]	-1868.0
▁what	-1869.0
report	-1870.0
Web	-1871.0
▁transactions	-1872.0
▁print	-1873.0
ken	-1874.0
acy	-1875.0
ummari	-1876.0
▁automated	-1877.0
lim	-1878.0
▁arri	-1879.0
▁stream	-1880.0
▁visual	-1881.0
lity	-1882.0
photos	-1883.0
▁sharing	-1884.0
lls	-1885.0
trigger	-1886.0
rial	-1887.0
▁bed	-1888.0
portion	-1889.0
24	-1890.0
walking	-1891.0
tive	-1892.0
▁automation	-1893.0
▁15	-1894.0
▁after	-1895.0
▁20	-1896.0
night	-1897.0
conne	-1898.0
ти	-1899.0
traffic	-1900.0
ntal	-1901.0
how	-1902.0
inds	-1903.0
avo	-1904.0
mended	-1905.0
▁intensity	-1906.0
onym	-1907.0
ffee	-1908.0
ader	-1909.0
redient	-1910.0
▁tire	-1911.0
restriction	-1912.0
ache	-1913.0
▁within	-1914.0
▁pace	-1915.0
ports	-1916.0
fan	-1917.0
zard	-1918.0
▁operation	-1919.0
uff	-1920.0
▁break	-1921.0
antity	-1922.0
ative	-1923.0
rush	-1924.0
▁Hey	-1925.0
▁strength	-1926.0
▁heart	-1927.0
sonal	-1928.0
inst	-1929.0
▁milli	-1930.0
▁Spe	-1931.0
onymous	-1932.0
ki	-1933.0
▁label	-1934.0
symbol	-1935.0
iti	-1936.0
▁price	-1937.0
77	-1938.0
▁purifier	-1939.0
▁tasks	-1940.0
cooking	-1941.0
▁block	-1942.0
due	-1943.0
▁input	-1944.0
ned	-1945.0
▁drawing	-1946.0
oram	-1947.0
ka	-1948.0
ademic	-1949.0
sso	-1950.0
▁по	-1951.0
heit	-1952.0
pause	-1953.0
vocabulary	-1954.0
▁venues	-1955.0
messages	-1956.0
voice	-1957.0
hren	-1958.0
monthly	-1959.0
ummarize	-1960.0
pt	-1961.0
▁ans	-1962.0
family	-1963.0
senti	-1964.0
hrenheit	-1965.0
MS	-1966.0
▁Speaker	-1967.0
▁academic	-1968.0
▁whiteboard	-1969.0
intensity	-1970.0
stru	-1971.0
gnifier	-1972.0
calendar	-1973.0
":2	-1974.0
nel	-1975.0
▁playback	-1976.0
▁state	-1977.0
▁stock	-1978.0
▁star	-1979.0
▁brightness	-1980.0
▁words	-1981.0
bil	-1982.0
▁switch	-1983.0
▁desk	-1984.0
▁30	-1985.0
▁convert	-1986.0
etary	-1987.0
▁100.","	-1988.0
diaper	-1989.0
▁garden	-1990.0
Dis	-1991.0
istered	-1992.0
▁recommended	-1993.0
peat	-1994.0
ool	-1995.0
▁capacity	-1996.0
alculates	-1997.0
chi	-1998.0
adline	-1999.0
▁bi	-2000.0
gain	-2001.0
tspot	-2002.0
tainment	-2003.0
▁move	-2004.0
bill	-2005.0
bro	-2006.0
task	-2007.0
allow	-2008.0
dispense	-2009.0
bedtime	-2010.0
mal	-2011.0
tran	-2012.0
▁tab	-2013.0
▁Mon	-2014.0
▁que	-2015.0
▁SMS	-2016.0
ternal	-2017.0
Ac	-2018.0
poll	-2019.0
rating	-2020.0
pin	-2021.0
Ar	-2022.0
lection	-2023.0
ssoci	-2024.0
unset	-2025.0
▁nearby	-2026.0
snooze	-2027.0
riger	-2028.0
▁associ	-2029.0
▁events	-2030.0
ent	-2031.0
pia	-2032.0
List	-2033.0
Que	-2034.0
▁point	-2035.0
onent	-2036.0
rigerator	-2037.0
▁score	-2038.0
▁filtered	-2039.0
Full	-2040.0
▁regarding	-2041.0
uffle	-2042.0
ре	-2043.0
restart	-2044.0
anoram	-2045.0
▁quality	-2046.0
▁late	-2047.0
usage	-2048.0
▁streak	-2049.0
▁dark	-2050.0
annel	-2051.0
▁clean	-2052.0
▁baby	-2053.0
Queries	-2054.0
ttle	-2055.0
nds	-2056.0
0,"	-2057.0
restaurant	-2058.0
nce	-2059.0
▁delivery	-2060.0
▁associated	-2061.0
rending	-2062.0
ot	-2063.0
▁ci	-2064.0
iration	-2065.0
ply	-2066.0
▁registered	-2067.0
font	-2068.0
▁answer	-2069.0
▁direct	-2070.0
New	-2071.0
▁mark	-2072.0
▁high	-2073.0
large	-2074.0
tili	-2075.0
alculate	-2076.0
▁grams	-2077.0
▁ISO	-2078.0
▁used	-2079.0
▁power	-2080.0
twitter	-2081.0
oil	-2082.0
▁coordinate	-2083.0
▁pi	-2084.0
▁short	-2085.0
Calculates	-2086.0
ording	-2087.0
▁detected	-2088.0
▁monitor	-2089.0
▁results	-2090.0
▁clear	-2091.0
os	-2092.0
venues	-2093.0
▁until	-2094.0
▁V	-2095.0
▁balance	-2096.0
expense	-2097.0
▁desktop	-2098.0
▁cost	-2099.0
Convert	-2100.0
▁cop	-2101.0
identi	-2102.0
AP	-2103.0
ara	-2104.0
▁formatted	-2105.0
amb	-2106.0
streak	-2107.0
rotation	-2108.0
rtual	-2109.0
recording	-2110.0
▁voice	-2111.0
▁difficulty	-2112.0
facebook	-2113.0
lesson	-2114.0
liters	-2115.0
options	-2116.0
heart	-2117.0
fahrenheit	-2118.0
now	-2119.0
mp	-2120.0
valu	-2121.0
zer	-2122.0
ocument	-2123.0
LA	-2124.0
ads	-2125.0
▁anal	-2126.0
sepia	-2127.0
▁comma	-2128.0
▁completion	-2129.0
▁tag	-2130.0
Starts	-2131.0
feedback	-2132.0
▁provide	-2133.0
rty	-2134.0
▁minute	-2135.0
quence	-2136.0
grams	-2137.0
phrase	-2138.0
setting	-2139.0
▁drill	-2140.0
zzle	-2141.0
▁refrigerator	-2142.0
ell	-2143.0
In	-2144.0
USD	-2145.0
quest	-2146.0
home	-2147.0
▁records	-2148.0
Request	-2149.0
▁previous	-2150.0
ко	-2151.0
avoid	-2152.0
_1	-2153.0
our	-2154.0
Im	-2155.0
ware	-2156.0
ition	-2157.0
detection	-2158.0
mon	-2159.0
full	-2160.0
▁replacement	-2161.0
previous	-2162.0
pronunciation	-2163.0
sible	-2164.0
services	-2165.0
▁10).","	-2166.0
tolls	-2167.0
Clear	-2168.0
▁repre	-2169.0
▁char	-2170.0
unblock	-2171.0
chieve	-2172.0
▁achieve	-2173.0
ookmark	-2174.0
direct	-2175.0
veri	-2176.0
capacity	-2177.0
Maximum	-2178.0
▁countdown	-2179.0
color	-2180.0
▁emails	-2181.0
ito	-2182.0
▁find	-2183.0
ved	-2184.0
purifier	-2185.0
sign	-2186.0
hicago	-2187.0
directions	-2188.0
bot	-2189.0
plane	-2190.0
▁QR	-2191.0
44	-2192.0
rolling	-2193.0
white	-2194.0
▁lights	-2195.0
feren	-2196.0
athing	-2197.0
▁5.","	-2198.0
ни	-2199.0
▁then	-2200.0
Duration	-2201.0
ва	-2202.0
▁outdoor	-2203.0
▁levels	-2204.0
Additional	-2205.0
orage	-2206.0
tag	-2207.0
▁lock	-2208.0
vection	-2209.0
▁symbol	-2210.0
ymp	-2211.0
ide	-2212.0
▁expiration	-2213.0
uum	-2214.0
plicate	-2215.0
▁milliliters	-2216.0
▁mirror	-2217.0
▁station	-2218.0
ymptom	-2219.0
▁pending	-2220.0
▁sp	-2221.0
▁aloud	-2222.0
_99	-2223.0
▁finis	-2224.0
sets	-2225.0
EUR	-2226.0
olice	-2227.0
andard	-2228.0
▁link	-2229.0
▁canvas	-2230.0
tire	-2231.0
но	-2232.0
my	-2233.0
▁life	-2234.0
updates	-2235.0
▁burst	-2236.0
adcast	-2237.0
Changes	-2238.0
те	-2239.0
bility	-2240.0
▁require	-2241.0
itude	-2242.0
stics	-2243.0
table	-2244.0
▁allow	-2245.0
▁avo	-2246.0
▁font	-2247.0
tel	-2248.0
▁confirmation	-2249.0
▁modi	-2250.0
▁hard	-2251.0
▁sequence	-2252.0
metadata	-2253.0
cycle	-2254.0
Phone	-2255.0
security	-2256.0
Min	-2257.0
An	-2258.0
bor	-2259.0
▁quick	-2260.0
City	-2261.0
▁exercise	-2262.0
▁toward	-2263.0
gar	-2264.0
identify	-2265.0
region	-2266.0
▁ing	-2267.0
▁monetary	-2268.0
confir	-2269.0
blood	-2270.0
oz	-2271.0
net	-2272.0
xy	-2273.0
▁create	-2274.0
subscriptions	-2275.0
watering	-2276.0
dinner	-2277.0
onnect	-2278.0
Applies	-2279.0
unch	-2280.0
ceries	-2281.0
valuate	-2282.0
interval	-2283.0
▁avoid	-2284.0
route	-2285.0
Report	-2286.0
▁hiking	-2287.0
▁miles	-2288.0
actions	-2289.0
▁и	-2290.0
detector	-2291.0
export	-2292.0
input	-2293.0
ри	-2294.0
▁directions	-2295.0
▁starting	-2296.0
lage	-2297.0
urb	-2298.0
tify	-2299.0
▁unlock	-2300.0
senting	-2301.0
-100	-2302.0
any	-2303.0
▁component	-2304.0
moderate	-2305.0
igh	-2306.0
Track	-2307.0
Website	-2308.0
leak	-2309.0
strict	-2310.0
}}},	-2311.0
▁due	-2312.0
cies	-2313.0
▁representing	-2314.0
iness	-2315.0
itle	-2316.0
▁ingredient	-2317.0
▁meters	-2318.0
▁9	-2319.0
▁0.0	-2320.0
hvac	-2321.0
alert	-2322.0
paper	-2323.0
Title	-2324.0
▁deadline	-2325.0
▁calls	-2326.0
▁term	-2327.0
xygen	-2328.0
whiteboard	-2329.0
▁pages	-2330.0
yst	-2331.0
▁widget	-2332.0
▁fr	-2333.0
▁named	-2334.0
▁4	-2335.0
▁roads	-2336.0
▁toll	-2337.0
ove	-2338.0
▁restaurant	-2339.0
upcoming	-2340.0
linds	-2341.0
▁Show	-2342.0
ons	-2343.0
actice	-2344.0
sconnect	-2345.0
▁ke	-2346.0
police	-2347.0
:30	-2348.0
Sh	-2349.0
▁7	-2350.0
ound	-2351.0
▁warning	-2352.0
print	-2353.0
atistics	-2354.0
difficulty	-2355.0
▁tem	-2356.0
method	-2357.0
split	-2358.0
▁bro	-2359.0
comple	-2360.0
ait	-2361.0
Recipient	-2362.0
"}}},	-2363.0
▁gro	-2364.0
plier	-2365.0
rotate	-2366.0
most	-2367.0
▁2.0	-2368.0
▁creative	-2369.0
▁options	-2370.0
speech	-2371.0
sp	-2372.0
▁layer	-2373.0
▁feedback	-2374.0
▁za	-2375.0
steps	-2376.0
▁shop	-2377.0
allpaper	-2378.0
Au	-2379.0
▁ap	-2380.0
smoke	-2381.0
unlock	-2382.0
▁playing	-2383.0
▁rental	-2384.0
▁remotely	-2385.0
▁multiplier	-2386.0
driving	-2387.0
▁requirements	-2388.0
yard	-2389.0
ighbor	-2390.0
ging	-2391.0
ustom	-2392.0
als	-2393.0
▁о	-2394.0
transit	-2395.0
▁later	-2396.0
▁σ	-2397.0
▁species	-2398.0
Sc	-2399.0
▁(0.5	-2400.0
▁μ	-2401.0
▁ja	-2402.0
▁fir	-2403.0
▁practice	-2404.0
▁care	-2405.0
▁fav	-2406.0
▁incident	-2407.0
▁definition	-2408.0
▁cart	-2409.0
▁neighbor	-2410.0
els	-2411.0
immediately	-2412.0
▁take	-2413.0
ones	-2414.0
volume	-2415.0
▁gu	-2416.0
MI	-2417.0
ways	-2418.0
▁export	-2419.0
▁metrics	-2420.0
meal	-2421.0
usiness	-2422.0
▁face	-2423.0
ogra	-2424.0
▁charging	-2425.0
iled	-2426.0
▁biller	-2427.0
fill	-2428.0
ise	-2429.0
edit	-2430.0
agram	-2431.0
hood	-2432.0
▁security	-2433.0
▁cho	-2434.0
frequency	-2435.0
ik	-2436.0
▁invitation	-2437.0
forecast	-2438.0
▁operational	-2439.0
soil	-2440.0
▁checklist	-2441.0
▁neighborhood	-2442.0
DMI	-2443.0
spending	-2444.0
ually	-2445.0
▁design	-2446.0
▁too	-2447.0
:/	-2448.0
tracking	-2449.0
quantity	-2450.0
":3	-2451.0
://	-2452.0
Short	-2453.0
enter	-2454.0
calculate	-2455.0
'","	-2456.0
fine	-2457.0
mostat	-2458.0
metr	-2459.0
ли	-2460.0
thor	-2461.0
▁see	-2462.0
ormal	-2463.0
▁morning	-2464.0
▁info	-2465.0
balance	-2466.0
translate	-2467.0
▁pix	-2468.0
struction	-2469.0
compose	-2470.0
▁follow	-2471.0
Tem	-2472.0
tes	-2473.0
▁response	-2474.0
▁meal	-2475.0
▁acce	-2476.0
ystolic	-2477.0
price	-2478.0
astolic	-2479.0
cart	-2480.0
ref	-2481.0
▁Room	-2482.0
cook	-2483.0
▁Could	-2484.0
▁statistics	-2485.0
step	-2486.0
▁APA	-2487.0
▁milk	-2488.0
df	-2489.0
Immediately	-2490.0
на	-2491.0
▁modify	-2492.0
mental	-2493.0
Sub	-2494.0
▁cycling	-2495.0
▁blood	-2496.0
info	-2497.0
▁along	-2498.0
completed	-2499.0
backyard	-2500.0
▁Chicago	-2501.0
▁side	-2502.0
▁past	-2503.0
▁portion	-2504.0
▁ring	-2505.0
cc	-2506.0
ji	-2507.0
▁step	-2508.0
Control	-2509.0
rical	-2510.0
▁transcription	-2511.0
ids	-2512.0
▁da	-2513.0
▁MLA	-2514.0
ancial	-2515.0
cut	-2516.0
▁range	-2517.0
defin	-2518.0
merchant	-2519.0
view	-2520.0
▁'1	-2521.0
▁threshold	-2522.0
ear	-2523.0
▁il	-2524.0
▁report	-2525.0
▁any	-2526.0
▁slow	-2527.0
osition	-2528.0
Toggles	-2529.0
stock	-2530.0
files	-2531.0
Room	-2532.0
HDMI	-2533.0
ices	-2534.0
convection	-2535.0
va	-2536.0
▁first	-2537.0
fetch	-2538.0
uture	-2539.0
ju	-2540.0
gne	-2541.0
cipe	-2542.0
▁again	-2543.0
ου	-2544.0
nearby	-2545.0
ank	-2546.0
▁timezone	-2547.0
was	-2548.0
▁newsletter	-2549.0
transcription	-2550.0
▁more	-2551.0
▁financial	-2552.0
▁13	-2553.0
settings	-2554.0
eink	-2555.0
sensitivity	-2556.0
rent	-2557.0
▁position	-2558.0
ration	-2559.0
inv	-2560.0
Com	-2561.0
▁Can	-2562.0
arches	-2563.0
▁sk	-2564.0
▁index	-2565.0
coffee	-2566.0
▁returns	-2567.0
го	-2568.0
▁latest	-2569.0
▁being	-2570.0
lights	-2571.0
▁future	-2572.0
▁12	-2573.0
ority	-2574.0
▁automatically	-2575.0
Living	-2576.0
lashlight	-2577.0
Searches	-2578.0
prink	-2579.0
▁inside	-2580.0
▁author	-2581.0
▁area	-2582.0
prinkler	-2583.0
▁achieved	-2584.0
ground	-2585.0
▁mu	-2586.0
▁contents	-2587.0
stit	-2588.0
να	-2589.0
▁some	-2590.0
clipboard	-2591.0
▁hazard	-2592.0
dim	-2593.0
▁online	-2594.0
names	-2595.0
VPN	-2596.0
▁while	-2597.0
noir	-2598.0
js	-2599.0
Trans	-2600.0
velo	-2601.0
▁et	-2602.0
pected	-2603.0
▁diffe	-2604.0
▁VPN	-2605.0
warm	-2606.0
▁dinner	-2607.0
pdf	-2608.0
pressure	-2609.0
script	-2610.0
not	-2611.0
_88	-2612.0
quality	-2613.0
address	-2614.0
▁complete	-2615.0
▁timeline	-2616.0
▁assistant	-2617.0
▁oun	-2618.0
▁performance	-2619.0
gnee	-2620.0
des	-2621.0
▁My	-2622.0
vivid	-2623.0
Volume	-2624.0
fast	-2625.0
▁different	-2626.0
▁ver	-2627.0
▁ounces	-2628.0
compress	-2629.0
▁1.0.","	-2630.0
▁default	-2631.0
point	-2632.0
hour	-2633.0
tracker	-2634.0
over	-2635.0
50	-2636.0
download	-2637.0
ttps	-2638.0
▁Z	-2639.0
▁pron	-2640.0
▁matching	-2641.0
▁record	-2642.0
nap	-2643.0
▁devices	-2644.0
Work	-2645.0
chive	-2646.0
▁gear	-2647.0
rost	-2648.0
▁medication	-2649.0
▁model	-2650.0
invitations	-2651.0
▁pixels	-2652.0
Move	-2653.0
▁must	-2654.0
connect	-2655.0
garage	-2656.0
ree	-2657.0
▁б	-2658.0
▁well	-2659.0
▁fast	-2660.0
refresh	-2661.0
widget	-2662.0
assign	-2663.0
ла	-2664.0
bake	-2665.0
vations	-2666.0
clin	-2667.0
▁hotspot	-2668.0
uel	-2669.0
zi	-2670.0
minates	-2671.0
▁week	-2672.0
▁vac	-2673.0
ilent	-2674.0
▁blending	-2675.0
running	-2676.0
▁ge	-2677.0
Find	-2678.0
▁π	-2679.0
ounce	-2680.0
▁breast	-2681.0
▁CC	-2682.0
olog	-2683.0
alled	-2684.0
ference	-2685.0
Close	-2686.0
▁observations	-2687.0
▁hardware	-2688.0
▁dates	-2689.0
cure	-2690.0
▁buy	-2691.0
▁op	-2692.0
▁St	-2693.0
▁inst	-2694.0
▁designated	-2695.0
qr	-2696.0
▁test	-2697.0
clined	-2698.0
gy	-2699.0
External	-2700.0
network	-2701.0
▁Monday	-2702.0
Timer	-2703.0
ια	-2704.0
▁veri	-2705.0
anonymous	-2706.0
ured	-2707.0
Brightness	-2708.0
man	-2709.0
▁pur	-2710.0
▁tre	-2711.0
▁wear	-2712.0
▁Please	-2713.0
▁steps	-2714.0
washer	-2715.0
▁composition	-2716.0
▁assigned	-2717.0
▁pay	-2718.0
verity	-2719.0
ssid	-2720.0
stopwatch	-2721.0
irth	-2722.0
▁clipboard	-2723.0
▁pronounce	-2724.0
index	-2725.0
nde	-2726.0
cker	-2727.0
Curre	-2728.0
esti	-2729.0
▁inte	-2730.0
▁intervals	-2731.0
confirmation	-2732.0
broil	-2733.0
▁background	-2734.0
▁altitude	-2735.0
business	-2736.0
▁displayed	-2737.0
▁generate	-2738.0
ali	-2739.0
hes	-2740.0
▁translate	-2741.0
ku	-2742.0
Comma	-2743.0
plus	-2744.0
▁κ	-2745.0
▁collage	-2746.0
▁Shows	-2747.0
▁credenti	-2748.0
▁recipients	-2749.0
Archive	-2750.0
trip	-2751.0
oud	-2752.0
Translate	-2753.0
▁repeat	-2754.0
Mark	-2755.0
stream	-2756.0
gra	-2757.0
irthday	-2758.0
Compose	-2759.0
sort	-2760.0
▁collection	-2761.0
":15	-2762.0
▁reason	-2763.0
▁copy	-2764.0
▁shuffle	-2765.0
▁credentials	-2766.0
mu	-2767.0
Total	-2768.0
▁el	-2769.0
sha	-2770.0
Am	-2771.0
▁monthly	-2772.0
▁symptom	-2773.0
reset	-2774.0
▁enti	-2775.0
▁choices	-2776.0
▁stru	-2777.0
▁against	-2778.0
▁24	-2779.0
total	-2780.0
drill	-2781.0
...	-2782.0
ple	-2783.0
reason	-2784.0
▁fridge	-2785.0
▁sel	-2786.0
▁develo	-2787.0
olution	-2788.0
▁ebook	-2789.0
▁pack	-2790.0
Generate	-2791.0
-0	-2792.0
▁learning	-2793.0
▁expected	-2794.0
hed	-2795.0
▁not	-2796.0
▁keep	-2797.0
▁develop	-2798.0
▁custom	-2799.0
current	-2800.0
wind	-2801.0
gns	-2802.0
▁το	-2803.0
gallery	-2804.0
▁accur	-2805.0
▁shopping	-2806.0
▁toggle	-2807.0
ferred	-2808.0
▁process	-2809.0
▁wearable	-2810.0
▁nozzle	-2811.0
ncies	-2812.0
▁also	-2813.0
rite	-2814.0
Le	-2815.0
▁secure	-2816.0
Edit	-2817.0
tech	-2818.0
▁invitations	-2819.0
xl	-2820.0
▁currencies	-2821.0
▁Re	-2822.0
▁elevation	-2823.0
ava	-2824.0
▁transcript	-2825.0
▁ph	-2826.0
▁look	-2827.0
bottle	-2828.0
▁Check	-2829.0
▁attemp	-2830.0
go	-2831.0
blue	-2832.0
▁unarchive	-2833.0
phic	-2834.0
aloud	-2835.0
▁common	-2836.0
assistant	-2837.0
ghting	-2838.0
Filter	-2839.0
▁entire	-2840.0
pay	-2841.0
▁download	-2842.0
nerary	-2843.0
ich	-2844.0
▁blender	-2845.0
airy	-2846.0
▁initi	-2847.0
ample	-2848.0
shi	-2849.0
▁brush	-2850.0
▁rece	-2851.0
lp	-2852.0
▁refresh	-2853.0
brow	-2854.0
timezone	-2855.0
▁coverage	-2856.0
assignee	-2857.0
blender	-2858.0
▁accom	-2859.0
▁stopwatch	-2860.0
su	-2861.0
wet	-2862.0
modate	-2863.0
▁accommodate	-2864.0
ria	-2865.0
ither	-2866.0
ED	-2867.0
▁mer	-2868.0
▁wait	-2869.0
private	-2870.0
▁meas	-2871.0
▁company	-2872.0
▁ч	-2873.0
entertainment	-2874.0
pend	-2875.0
ле	-2876.0
▁heat	-2877.0
ories	-2878.0
bli	-2879.0
ownload	-2880.0
▁want	-2881.0
▁gallery	-2882.0
▁either	-2883.0
rie	-2884.0
rop	-2885.0
▁developmental	-2886.0
redit	-2887.0
":"20	-2888.0
▁accuracy	-2889.0
Product	-2890.0
▁under	-2891.0
intain	-2892.0
ga	-2893.0
Ter	-2894.0
▁compress	-2895.0
magnifier	-2896.0
defined	-2897.0
reader	-2898.0
ya	-2899.0
Which	-2900.0
headlines	-2901.0
loop	-2902.0
":"1	-2903.0
_3	-2904.0
▁rash	-2905.0
confirm	-2906.0
browsing	-2907.0
▁LED	-2908.0
personal	-2909.0
Cancel	-2910.0
":6	-2911.0
fici	-2912.0
▁sele	-2913.0
sunset	-2914.0
aces	-2915.0
▁analy	-2916.0
▁medical	-2917.0
Gym	-2918.0
▁cycles	-2919.0
▁ta	-2920.0
▁shut	-2921.0
▁stats	-2922.0
tailed	-2923.0
can	-2924.0
ει	-2925.0
▁paused	-2926.0
br	-2927.0
cost	-2928.0
zip	-2929.0
like	-2930.0
standard	-2931.0
▁scene	-2932.0
ographic	-2933.0
▁duplicate	-2934.0
gent	-2935.0
2","	-2936.0
_77	-2937.0
▁longitude	-2938.0
▁arrive	-2939.0
▁sign	-2940.0
dark	-2941.0
anorama	-2942.0
Terminates	-2943.0
▁sensitivity	-2944.0
comment	-2945.0
▁planned	-2946.0
rib	-2947.0
York	-2948.0
downtime	-2949.0
Time	-2950.0
ки	-2951.0
_55	-2952.0
▁clim	-2953.0
▁document	-2954.0
07	-2955.0
Spe	-2956.0
medication	-2957.0
▁latitude	-2958.0
small	-2959.0
▁store	-2960.0
▁listen	-2961.0
▁nu	-2962.0
channel	-2963.0
Home	-2964.0
transactions	-2965.0
layout	-2966.0
▁movie	-2967.0
Download	-2968.0
Family	-2969.0
▁warnings	-2970.0
away	-2971.0
renewal	-2972.0
▁restriction	-2973.0
utri	-2974.0
▁да	-2975.0
▁park	-2976.0
▁resulting	-2977.0
▁broadcast	-2978.0
dairy	-2979.0
▁das	-2980.0
▁who	-2981.0
▁minimum	-2982.0
▁go	-2983.0
▁mir	-2984.0
Snooze	-2985.0
▁50	-2986.0
Compress	-2987.0
▁hist	-2988.0
idth	-2989.0
▁45	-2990.0
▁make	-2991.0
breast	-2992.0
ouse	-2993.0
tics	-2994.0
tz	-2995.0
instagram	-2996.0
ince	-2997.0
▁measure	-2998.0
issue	-2999.0
delivery	-3000.0
orite	-3001.0
▁dish	-3002.0
▁cor	-3003.0
hen	-3004.0
▁bedtime	-3005.0
Loc	-3006.0
dirty	-3007.0
▁rende	-3008.0
movie	-3009.0
ized	-3010.0
install	-3011.0
unk	-3012.0
kay	-3013.0
rica	-3014.0
onome	-3015.0
▁internal	-3016.0
Acti	-3017.0
▁private	-3018.0
▁phys	-3019.0
gas	-3020.0
▁frost	-3021.0
▁struct	-3022.0
APL	-3023.0
▁sa	-3024.0
▁airport	-3025.0
ilt	-3026.0
▁suc	-3027.0
social	-3028.0
part	-3029.0
atima	-3030.0
▁reader	-3031.0
▁bookmark	-3032.0
▁detailed	-3033.0
ond	-3034.0
anno	-3035.0
Tempor	-3036.0
priority	-3037.0
▁adjust	-3038.0
TA	-3039.0
▁primary	-3040.0
":4	-3041.0
asy	-3042.0
▁š	-3043.0
"}}}]	-3044.0
morning	-3045.0
▁cite	-3046.0
armacy	-3047.0
png	-3048.0
When	-3049.0
intake	-3050.0
focus	-3051.0
sion	-3052.0
▁finished	-3053.0
▁them	-3054.0
▁front	-3055.0
dic	-3056.0
trending	-3057.0
tels	-3058.0
▁attempting	-3059.0
▁physical	-3060.0
ulse	-3061.0
ological	-3062.0
make	-3063.0
Amount	-3064.0
AAPL	-3065.0
▁party	-3066.0
▁fun	-3067.0
▁personal	-3068.0
▁profile	-3069.0
▁я	-3070.0
Follow	-3071.0
cookies	-3072.0
▁Pro	-3073.0
nolog	-3074.0
▁nutri	-3075.0
▁done	-3076.0
arily	-3077.0
Remove	-3078.0
za	-3079.0
topics	-3080.0
▁each	-3081.0
show	-3082.0
desk	-3083.0
▁tech	-3084.0
601	-3085.0
panorama	-3086.0
▁60	-3087.0
of	-3088.0
burst	-3089.0
avy	-3090.0
BP	-3091.0
contacts	-3092.0
Lock	-3093.0
▁Clear	-3094.0
000	-3095.0
▁favorite	-3096.0
Temporarily	-3097.0
unfollow	-3098.0
position	-3099.0
immediate	-3100.0
▁If	-3101.0
":8	-3102.0
exp	-3103.0
▁structured	-3104.0
return	-3105.0
▁normal	-3106.0
▁sport	-3107.0
merica	-3108.0
▁cont	-3109.0
▁а	-3110.0
biller	-3111.0
notify	-3112.0
shared	-3113.0
ule	-3114.0
▁confir	-3115.0
ollar	-3116.0
inc	-3117.0
bing	-3118.0
▁wallpaper	-3119.0
ript	-3120.0
summarize	-3121.0
submit	-3122.0
▁The	-3123.0
America	-3124.0
▁dat	-3125.0
▁stu	-3126.0
▁may	-3127.0
▁accessi	-3128.0
▁region	-3129.0
▁magnifier	-3130.0
▁es	-3131.0
Connect	-3132.0
▁α	-3133.0
_44	-3134.0
cache	-3135.0
▁8601	-3136.0
pages	-3137.0
▁forward	-3138.0
strength	-3139.0
length	-3140.0
exercise	-3141.0
ст	-3142.0
▁merchant	-3143.0
Sends	-3144.0
cene	-3145.0
ateo	-3146.0
▁Java	-3147.0
crash	-3148.0
▁på	-3149.0
desktop	-3150.0
Scene	-3151.0
incident	-3152.0
Activate	-3153.0
Script	-3154.0
▁γ	-3155.0
metry	-3156.0
▁self	-3157.0
▁headlines	-3158.0
▁JavaScript	-3159.0
bookmark	-3160.0
är	-3161.0
web	-3162.0
lemetry	-3163.0
▁preferred	-3164.0
▁ticker	-3165.0
ah	-3166.0
virtual	-3167.0
rim	-3168.0
checking	-3169.0
▁control	-3170.0
aves	-3171.0
▁sur	-3172.0
sen	-3173.0
canvas	-3174.0
▁how	-3175.0
annotate	-3176.0
break	-3177.0
Assi	-3178.0
▁there	-3179.0
00,"	-3180.0
▁remove	-3181.0
weekly	-3182.0
▁er	-3183.0
▁begin	-3184.0
credit	-3185.0
":45	-3186.0
nology	-3187.0
▁maintain	-3188.0
shopping	-3189.0
▁pic	-3190.0
▁die	-3191.0
tical	-3192.0
▁10.","	-3193.0
▁arrival	-3194.0
▁access	-3195.0
rehe	-3196.0
shut	-3197.0
▁option	-3198.0
▁articles	-3199.0
Pri	-3200.0
ím	-3201.0
Assigns	-3202.0
sturb	-3203.0
OO	-3204.0
▁ETA	-3205.0
output	-3206.0
saved	-3207.0
▁chron	-3208.0
tu	-3209.0
▁gain	-3210.0
oor	-3211.0
altitude	-3212.0
link	-3213.0
shutdown	-3214.0
bu	-3215.0
sources	-3216.0
nu	-3217.0
breathing	-3218.0
ля	-3219.0
▁chronological	-3220.0
▁built	-3221.0
▁verify	-3222.0
▁virtual	-3223.0
lap	-3224.0
▁API	-3225.0
ripher	-3226.0
OOG	-3227.0
Post	-3228.0
fall	-3229.0
head	-3230.0
▁checks	-3231.0
▁Wh	-3232.0
▁equ	-3233.0
▁trending	-3234.0
devices	-3235.0
▁għ	-3236.0
▁function	-3237.0
▁oc	-3238.0
_00	-3239.0
Social	-3240.0
ickup	-3241.0
OOGL	-3242.0
▁supp	-3243.0
▁help	-3244.0
End	-3245.0
termin	-3246.0
andom	-3247.0
▁tell	-3248.0
не	-3249.0
airplane	-3250.0
urgent	-3251.0
process	-3252.0
tilizer	-3253.0
▁crash	-3254.0
ctric	-3255.0
kill	-3256.0
▁installed	-3257.0
ei	-3258.0
sports	-3259.0
range	-3260.0
litics	-3261.0
silent	-3262.0
▁bibli	-3263.0
articles	-3264.0
moisture	-3265.0
ви	-3266.0
▁pair	-3267.0
uki	-3268.0
sos	-3269.0
▁really	-3270.0
pass	-3271.0
stitution	-3272.0
orical	-3273.0
Ch	-3274.0
▁unblock	-3275.0
▁actions	-3276.0
ку	-3277.0
term	-3278.0
rou	-3279.0
ambient	-3280.0
▁č	-3281.0
pharmacy	-3282.0
▁bit	-3283.0
▁swe	-3284.0
123	-3285.0
billing	-3286.0
listen	-3287.0
Resets	-3288.0
technology	-3289.0
▁Y	-3290.0
birthday	-3291.0
ripheral	-3292.0
ogn	-3293.0
ör	-3294.0
Account	-3295.0
▁without	-3296.0
▁anonymous	-3297.0
GOOGL	-3298.0
456	-3299.0
▁browsing	-3300.0
▁topics	-3301.0
▁apps	-3302.0
▁listener	-3303.0
▁context	-3304.0
sms	-3305.0
GBP	-3306.0
▁accessibility	-3307.0
▁fer	-3308.0
job	-3309.0
▁para	-3310.0
ognito	-3311.0
ntertainment	-3312.0
ло	-3313.0
Budget	-3314.0
Wi	-3315.0
▁random	-3316.0
▁nume	-3317.0
lic	-3318.0
ulance	-3319.0
▁speaker	-3320.0
transport	-3321.0
ny	-3322.0
▁panoram	-3323.0
▁places	-3324.0
▁job	-3325.0
scrolling	-3326.0
storage	-3327.0
αι	-3328.0
vacuum	-3329.0
▁porch	-3330.0
▁Set	-3331.0
ipment	-3332.0
▁streaming	-3333.0
politics	-3334.0
▁sweep	-3335.0
▁responses	-3336.0
Block	-3337.0
mensi	-3338.0
score	-3339.0
▁panoramic	-3340.0
robot	-3341.0
xed	-3342.0
roshi	-3343.0
▁120	-3344.0
gram	-3345.0
indoor	-3346.0
being	-3347.0
beach	-3348.0
▁your	-3349.0
▁historical	-3350.0
▁URI	-3351.0
Rating	-3352.0
▁wellbeing	-3353.0
ер	-3354.0
▁fall	-3355.0
ursing	-3356.0
orn	-3357.0
▁anno	-3358.0
▁IDs	-3359.0
incognito	-3360.0
ää	-3361.0
disturb	-3362.0
▁gi	-3363.0
▁wet	-3364.0
▁only	-3365.0
fire	-3366.0
▁reminders	-3367.0
":20	-3368.0
▁picture	-3369.0
seat	-3370.0
Rate	-3371.0
▁but	-3372.0
abe	-3373.0
▁peripheral	-3374.0
▁den	-3375.0
▁podcast	-3376.0
mm	-3377.0
veway	-3378.0
Reply	-3379.0
OS	-3380.0
▁unfollow	-3381.0
oxygen	-3382.0
Read	-3383.0
":30	-3384.0
▁ko	-3385.0
Auto	-3386.0
▁fetch	-3387.0
da	-3388.0
▁way	-3389.0
▁ε	-3390.0
▁ingredients	-3391.0
▁airplane	-3392.0
zy	-3393.0
▁person	-3394.0
▁lighting	-3395.0
rder	-3396.0
Leave	-3397.0
▁invi	-3398.0
▁metadata	-3399.0
symbols	-3400.0
▁consum	-3401.0
▁predefined	-3402.0
▁sunset	-3403.0
mensions	-3404.0
▁serial	-3405.0
▁responsible	-3406.0
▁storage	-3407.0
Call	-3408.0
connected	-3409.0
▁kan	-3410.0
▁taking	-3411.0
tot	-3412.0
alet	-3413.0
▁indic	-3414.0
Pickup	-3415.0
threshold	-3416.0
és	-3417.0
alories	-3418.0
podcast	-3419.0
newsletter	-3420.0
▁vacuum	-3421.0
▁pa	-3422.0
kitchen	-3423.0
icro	-3424.0
▁Clears	-3425.0
uro	-3426.0
login	-3427.0
.1	-3428.0
▁breathing	-3429.0
▁мо	-3430.0
until	-3431.0
vides	-3432.0
▁here	-3433.0
ffice	-3434.0
crop	-3435.0
▁'22	-3436.0
uf	-3437.0
riday	-3438.0
▁packing	-3439.0
Provides	-3440.0
▁SOS	-3441.0
onk	-3442.0
Inst	-3443.0
sch	-3444.0
Speech	-3445.0
blinds	-3446.0
bra	-3447.0
cancellation	-3448.0
▁unpin	-3449.0
▁indoor	-3450.0
▁στ	-3451.0
forward	-3452.0
systolic	-3453.0
diastolic	-3454.0
▁у	-3455.0
▁shortcut	-3456.0
ть	-3457.0
elevation	-3458.0
oga	-3459.0
nack	-3460.0
subscribe	-3461.0
resources	-3462.0
▁It	-3463.0
že	-3464.0
▁map	-3465.0
▁т	-3466.0
▁final	-3467.0
▁'22:00'.","	-3468.0
▁questions	-3469.0
Un	-3470.0
Saves	-3471.0
internet	-3472.0
repeat	-3473.0
bpm	-3474.0
ambulance	-3475.0
ometer	-3476.0
▁'07	-3477.0
Turns	-3478.0
▁sti	-3479.0
▁16	-3480.0
Man	-3481.0
▁will	-3482.0
▁allowed	-3483.0
▁whether	-3484.0
00}}]	-3485.0
cession	-3486.0
▁know	-3487.0
lag	-3488.0
пи	-3489.0
Restart	-3490.0
▁indi	-3491.0
sert	-3492.0
▁every	-3493.0
▁consumption	-3494.0
▁equipment	-3495.0
▁kill	-3496.0
▁'07:00'.","	-3497.0
notification	-3498.0
events	-3499.0
-5	-3500.0
▁succession	-3501.0
hazard	-3502.0
electric	-3503.0
39	-3504.0
accident	-3505.0
ross	-3506.0
_0	-3507.0
yn	-3508.0
playing	-3509.0
▁до	-3510.0
▁charge	-3511.0
medical	-3512.0
sis	-3513.0
▁months	-3514.0
Currency	-3515.0
▁ми	-3516.0
▁exact	-3517.0
vidual	-3518.0
construction	-3519.0
connection	-3520.0
▁tool	-3521.0
ien	-3522.0
▁Do	-3523.0
autofill	-3524.0
resume	-3525.0
ups	-3526.0
yes	-3527.0
ders	-3528.0
Like	-3529.0
isten	-3530.0
▁nap	-3531.0
▁interactive	-3532.0
driveway	-3533.0
ficiency	-3534.0
penses	-3535.0
odometer	-3536.0
ires	-3537.0
▁est	-3538.0
▁sensors	-3539.0
▁tw	-3540.0
▁entertainment	-3541.0
▁individual	-3542.0
▁seat	-3543.0
Pay	-3544.0
jp	-3545.0
▁про	-3546.0
gan	-3547.0
lapsed	-3548.0
▁cast	-3549.0
iew	-3550.0
▁blinds	-3551.0
▁linked	-3552.0
kt	-3553.0
len	-3554.0
":12	-3555.0
state	-3556.0
▁among	-3557.0
Res	-3558.0
да	-3559.0
define	-3560.0
document	-3561.0
▁identified	-3562.0
_01	-3563.0
https	-3564.0
aster	-3565.0
Dispenses	-3566.0
always	-3567.0
Initiate	-3568.0
ying	-3569.0
vpn	-3570.0
▁travel	-3571.0
ready	-3572.0
rough	-3573.0
▁mate	-3574.0
Unfollow	-3575.0
roring	-3576.0
emails	-3577.0
totp	-3578.0
▁signal	-3579.0
▁oxygen	-3580.0
▁tu	-3581.0
▁για	-3582.0
▁Friday	-3583.0
▁scrolling	-3584.0
station	-3585.0
sibility	-3586.0
▁login	-3587.0
▁robot	-3588.0
nging	-3589.0
▁elapsed	-3590.0
▁hey	-3591.0
▁ко	-3592.0
'.",	-3593.0
Kitchen	-3594.0
Order	-3595.0
wame	-3596.0
▁these	-3597.0
Split	-3598.0
▁mirroring	-3599.0
▁server	-3600.0
jn	-3601.0
▁through	-3602.0
▁να	-3603.0
▁already	-3604.0
groceries	-3605.0
▁tempo	-3606.0
▁ni	-3607.0
▁micro	-3608.0
extra	-3609.0
View	-3610.0
audiobook	-3611.0
ane	-3612.0
-01	-3613.0
▁kitchen	-3614.0
minimize	-3615.0
▁gra	-3616.0
parti	-3617.0
living	-3618.0
▁logs	-3619.0
mobile	-3620.0
▁Uses	-3621.0
titles	-3622.0
ination	-3623.0
miles	-3624.0
Ren	-3625.0
ρα	-3626.0
shuffle	-3627.0
▁functionality	-3628.0
▁beats	-3629.0
izes	-3630.0
▁Al	-3631.0
breach	-3632.0
prinklers	-3633.0
▁resum	-3634.0
чи	-3635.0
▁EV	-3636.0
Summarize	-3637.0
ached	-3638.0
▁bec	-3639.0
▁ther	-3640.0
aci	-3641.0
":5}}]	-3642.0
▁observed	-3643.0
▁е	-3644.0
ди	-3645.0
▁să	-3646.0
thermostat	-3647.0
▁resolution	-3648.0
Di	-3649.0
Office	-3650.0
inactive	-3651.0
Go	-3652.0
2"}}]	-3653.0
chase	-3654.0
duce	-3655.0
terday	-3656.0
visible	-3657.0
provi	-3658.0
▁taken	-3659.0
cop	-3660.0
▁ik	-3661.0
party	-3662.0
▁points	-3663.0
▁occur	-3664.0
▁okay	-3665.0
dock	-3666.0
▁determin	-3667.0
▁severity	-3668.0
▁quit	-3669.0
Renders	-3670.0
maximize	-3671.0
saving	-3672.0
server	-3673.0
▁because	-3674.0
▁Speakers	-3675.0
Date	-3676.0
▁live	-3677.0
▁resuming	-3678.0
metrics	-3679.0
▁vend	-3680.0
fc	-3681.0
▁annotation	-3682.0
lix	-3683.0
ondon	-3684.0
▁across	-3685.0
▁act	-3686.0
ND	-3687.0
lated	-3688.0
bedroom	-3689.0
ided	-3690.0
▁edit	-3691.0
Manually	-3692.0
rece	-3693.0
▁mem	-3694.0
calls	-3695.0
Listen	-3696.0
▁analyz	-3697.0
Bu	-3698.0
ebook	-3699.0
space	-3700.0
hotspot	-3701.0
romo	-3702.0
1","	-3703.0
▁2.0).","	-3704.0
▁guided	-3705.0
▁stops	-3706.0
▁grid	-3707.0
ма	-3708.0
▁analyzed	-3709.0
▁thermostat	-3710.0
ks	-3711.0
▁material	-3712.0
▁memory	-3713.0
Bookmark	-3714.0
▁kilometer	-3715.0
▁cleaner	-3716.0
▁reach	-3717.0
▁secon	-3718.0
ms	-3719.0
▁Not	-3720.0
či	-3721.0
▁emp	-3722.0
flix	-3723.0
▁pas	-3724.0
percent	-3725.0
▁dirty	-3726.0
telemetry	-3727.0
cho	-3728.0
Force	-3729.0
▁stay	-3730.0
Install	-3731.0
▁plus	-3732.0
abase	-3733.0
▁vendor	-3734.0
abling	-3735.0
▁garage	-3736.0
▁manual	-3737.0
▁audiobook	-3738.0
▁always	-3739.0
▁та	-3740.0
▁pour	-3741.0
plate	-3742.0
▁connection	-3743.0
▁external	-3744.0
▁tom	-3745.0
▁prevent	-3746.0
unread	-3747.0
dz	-3748.0
entry	-3749.0
▁say	-3750.0
▁Dist	-3751.0
▁symbols	-3752.0
copies	-3753.0
▁DND	-3754.0
▁trends	-3755.0
▁microphone	-3756.0
▁fi	-3757.0
▁confirmed	-3758.0
▁fuel	-3759.0
yo	-3760.0
▁driving	-3761.0
Cooking	-3762.0
plac	-3763.0
▁mod	-3764.0
flashlight	-3765.0
Cast	-3766.0
▁ка	-3767.0
":7	-3768.0
▁height	-3769.0
▁Monitor	-3770.0
ipts	-3771.0
▁hal	-3772.0
answer	-3773.0
acture	-3774.0
ctive	-3775.0
markup	-3776.0
lunch	-3777.0
▁determine	-3778.0
hboard	-3779.0
Pause	-3780.0
▁til	-3781.0
▁Disturb	-3782.0
radio	-3783.0
seating	-3784.0
gb	-3785.0
done	-3786.0
FC	-3787.0
partment	-3788.0
ximize	-3789.0
gge	-3790.0
▁calcul	-3791.0
▁layout	-3792.0
▁subscribe	-3793.0
▁recipe	-3794.0
sprinklers	-3795.0
▁moderate	-3796.0
nfc	-3797.0
waypoint	-3798.0
▁manuf	-3799.0
▁proficiency	-3800.0
cam	-3801.0
▁sou	-3802.0
▁eng	-3803.0
▁nursing	-3804.0
Buy	-3805.0
▁sun	-3806.0
acturer	-3807.0
ushes	-3808.0
provider	-3809.0
stra	-3810.0
▁head	-3811.0
calories	-3812.0
frame	-3813.0
25	-3814.0
▁replac	-3815.0
▁second	-3816.0
ada	-3817.0
ev	-3818.0
only	-3819.0
▁manufacturer	-3820.0
▁marked	-3821.0
għ	-3822.0
▁CP	-3823.0
▁visibility	-3824.0
az	-3825.0
▁pass	-3826.0
oney	-3827.0
Podcast	-3828.0
jo	-3829.0
Change	-3830.0
remove	-3831.0
Password	-3832.0
vies	-3833.0
▁(0-100	-3834.0
ish	-3835.0
во	-3836.0
sa	-3837.0
ль	-3838.0
▁finish	-3839.0
yoga	-3840.0
March	-3841.0
▁year	-3842.0
39-1	-3843.0
Up	-3844.0
▁CPU	-3845.0
▁qui	-3846.0
tilities	-3847.0
▁rendered	-3848.0
rief	-3849.0
▁yard	-3850.0
brush	-3851.0
▁van	-3852.0
ofence	-3853.0
loads	-3854.0
▁639-1	-3855.0
tains	-3856.0
▁не	-3857.0
detected	-3858.0
▁NFC	-3859.0
▁disk	-3860.0
▁Mic	-3861.0
▁300	-3862.0
▁tal	-3863.0
User	-3864.0
flo	-3865.0
▁define	-3866.0
_22	-3867.0
▁empty	-3868.0
▁coffee	-3869.0
evaluate	-3870.0
jpg	-3871.0
▁blocking	-3872.0
ato	-3873.0
▁declined	-3874.0
em	-3875.0
sole	-3876.0
▁workspace	-3877.0
▁width	-3878.0
available	-3879.0
▁Pri	-3880.0
66	-3881.0
ай	-3882.0
▁groceries	-3883.0
▁16).","	-3884.0
▁money	-3885.0
▁database	-3886.0
snack	-3887.0
▁flashlight	-3888.0
▁occurred	-3889.0
months	-3890.0
▁append	-3891.0
▁bottle	-3892.0
▁(24	-3893.0
broadcast	-3894.0
cool	-3895.0
long	-3896.0
▁her	-3897.0
insert	-3898.0
Subscribe	-3899.0
▁copies	-3900.0
unches	-3901.0
▁che	-3902.0
▁dashboard	-3903.0
▁In	-3904.0
▁forget	-3905.0
irrigation	-3906.0
▁(0-100).","	-3907.0
лу	-3908.0
char	-3909.0
pos	-3910.0
ov	-3911.0
▁additional	-3912.0
▁defined	-3913.0
perating	-3914.0
skip	-3915.0
▁ri	-3916.0
▁wi	-3917.0
▁FM	-3918.0
tor	-3919.0
centration	-3920.0
asic	-3921.0
▁voor	-3922.0
▁changes	-3923.0
curtains	-3924.0
arri	-3925.0
nozzle	-3926.0
selection	-3927.0
soli	-3928.0
produce	-3929.0
21	-3930.0
Uploads	-3931.0
▁metr	-3932.0
▁(0-5	-3933.0
▁10:00'.","	-3934.0
duplicate	-3935.0
year	-3936.0
Look	-3937.0
▁token	-3938.0
Audio	-3939.0
▁(1	-3940.0
thing	-3941.0
23-1	-3942.0
▁purpo	-3943.0
aking	-3944.0
asta	-3945.0
▁13:30	-3946.0
pick	-3947.0
▁(0-59	-3948.0
▁review	-3949.0
disabling	-3950.0
erated	-3951.0
▁1:	-3952.0
▁се	-3953.0
▁descri	-3954.0
▁two	-3955.0
▁pros	-3956.0
▁performs	-3957.0
London	-3958.0
▁Fatima	-3959.0
brary	-3960.0
▁od	-3961.0
▁'45	-3962.0
Resume	-3963.0
aid	-3964.0
clim	-3965.0
▁searching	-3966.0
▁house	-3967.0
▁13:00	-3968.0
ba	-3969.0
▁1:50	-3970.0
cination	-3971.0
recipe	-3972.0
▁diastolic	-3973.0
▁systolic	-3974.0
yesterday	-3975.0
reezer	-3976.0
▁(0-59).","	-3977.0
resul	-3978.0
78	-3979.0
▁think	-3980.0
Minimize	-3981.0
▁cancelled	-3982.0
noise	-3983.0
▁breakdown	-3984.0
▁sure	-3985.0
Maximize	-3986.0
▁ranging	-3987.0
breakfast	-3988.0
εί	-3989.0
ui	-3990.0
forget	-3991.0
▁than	-3992.0
pear	-3993.0
Audiobook	-3994.0
FA	-3995.0
▁HH	-3996.0
▁top	-3997.0
▁standard	-3998.0
ining	-3999.0
▁purposes	-4000.0
▁crite	-4001.0
Autofill	-4002.0
TP	-4003.0
▁cance	-4004.0
onom	-4005.0
▁receive	-4006.0
▁encode	-4007.0
▁delay	-4008.0
▁ki	-4009.0
▁loop	-4010.0
receipts	-4011.0
Mirror	-4012.0
recurring	-4013.0
▁att	-4014.0
▁criteria	-4015.0
mula	-4016.0
▁What	-4017.0
▁sen	-4018.0
▁dishwasher	-4019.0
▁reset	-4020.0
▁nutrition	-4021.0
TO	-4022.0
disarm	-4023.0
vered	-4024.0
▁brief	-4025.0
▁initiate	-4026.0
▁13:30'.","	-4027.0
▁trying	-4028.0
hiking	-4029.0
▁shows	-4030.0
disconnect	-4031.0
spam	-4032.0
га	-4033.0
itinerary	-4034.0
\"	-4035.0
ulation	-4036.0
oot	-4037.0
scale	-4038.0
▁adjustment	-4039.0
▁13:00',	-4040.0
gment	-4041.0
')","	-4042.0
urope	-4043.0
the	-4044.0
▁snooze	-4045.0
anks	-4046.0
▁ran	-4047.0
▁jag	-4048.0
▁techn	-4049.0
▁recently	-4050.0
boarding	-4051.0
▁disarm	-4052.0
же	-4053.0
SON	-4054.0
▁så	-4055.0
▁quantity	-4056.0
▁measurement	-4057.0
rigin	-4058.0
related	-4059.0
cor	-4060.0
▁unread	-4061.0
Air	-4062.0
wallpaper	-4063.0
geofence	-4064.0
tering	-4065.0
gi	-4066.0
▁sprinkler	-4067.0
▁og	-4068.0
unds	-4069.0
stats	-4070.0
▁formula	-4071.0
▁many	-4072.0
▁uz	-4073.0
▁operating	-4074.0
tract	-4075.0
dish	-4076.0
ister	-4077.0
declined	-4078.0
Print	-4079.0
concentration	-4080.0
▁rest	-4081.0
lob	-4082.0
▁gig	-4083.0
▁climbing	-4084.0
confirmed	-4085.0
▁applic	-4086.0
multi	-4087.0
timeout	-4088.0
obser	-4089.0
▁sto	-4090.0
opy	-4091.0
ods	-4092.0
▁bring	-4093.0
▁fertilizer	-4094.0
iroshi	-4095.0
added	-4096.0
scan	-4097.0
ня	-4098.0
oint	-4099.0
▁left	-4100.0
nostic	-4101.0
ilk	-4102.0
ür	-4103.0
Europe	-4104.0
▁maybe	-4105.0
▁""},	-4106.0
."}}]	-4107.0
dishwasher	-4108.0
▁yet	-4109.0
ста	-4110.0
tur	-4111.0
ublic	-4112.0
▁те	-4113.0
▁0-100	-4114.0
Arm	-4115.0
sent	-4116.0
mind	-4117.0
dening	-4118.0
▁purchase	-4119.0
▁booking	-4120.0
TOTP	-4121.0
alizes	-4122.0
▁och	-4123.0
▁correct	-4124.0
its	-4125.0
▁pal	-4126.0
▁website	-4127.0
▁radio	-4128.0
ceed	-4129.0
▁plans	-4130.0
has	-4131.0
▁scan	-4132.0
lied	-4133.0
rental	-4134.0
▁focu	-4135.0
▁don	-4136.0
▁siren	-4137.0
▁JSON	-4138.0
▁actually	-4139.0
▁tomorrow	-4140.0
▁noise	-4141.0
float	-4142.0
9","	-4143.0
ctivity	-4144.0
▁τη	-4145.0
▁engine	-4146.0
first	-4147.0
dius	-4148.0
Ends	-4149.0
▁lu	-4150.0
Webcam	-4151.0
Apply	-4152.0
▁breach	-4153.0
kk	-4154.0
▁Find	-4155.0
BL	-4156.0
▁since	-4157.0
stam	-4158.0
▁reached	-4159.0
▁ten	-4160.0
results	-4161.0
ве	-4162.0
local	-4163.0
▁24-	-4164.0
care	-4165.0
▁mal	-4166.0
observed	-4167.0
▁cook	-4168.0
nual	-4169.0
▁pot	-4170.0
short	-4171.0
PR	-4172.0
▁leaves	-4173.0
▁det	-4174.0
wav	-4175.0
▁times	-4176.0
oro	-4177.0
Ind	-4178.0
▁sort	-4179.0
▁jo	-4180.0
▁focused	-4181.0
▁applicable	-4182.0
abor	-4183.0
жи	-4184.0
▁selected	-4185.0
▁scale	-4186.0
0}},{"	-4187.0
▁ent	-4188.0
▁filtr	-4189.0
▁tri	-4190.0
Daily	-4191.0
DF	-4192.0
structions	-4193.0
itness	-4194.0
uts	-4195.0
▁amb	-4196.0
plicit	-4197.0
▁sound	-4198.0
Minimum	-4199.0
vis	-4200.0
multiple	-4201.0
▁readings	-4202.0
▁tä	-4203.0
▁much	-4204.0
estimated	-4205.0
▁ka	-4206.0
charger	-4207.0
▁halts	-4208.0
0.	-4209.0
bs	-4210.0
по	-4211.0
Initializes	-4212.0
Copy	-4213.0
easy	-4214.0
mixed	-4215.0
▁und	-4216.0
▁shared	-4217.0
▁spent	-4218.0
symptom	-4219.0
arrive	-4220.0
Sk	-4221.0
▁saving	-4222.0
ables	-4223.0
Username	-4224.0
▁Ar	-4225.0
Indic	-4226.0
pickup	-4227.0
▁metronome	-4228.0
▁PDF	-4229.0
▁resur	-4230.0
▁studi	-4231.0
▁för	-4232.0
ени	-4233.0
Indicates	-4234.0
▁organ	-4235.0
aming	-4236.0
▁atten	-4237.0
shortcut	-4238.0
Hour	-4239.0
τα	-4240.0
esla	-4241.0
▁inste	-4242.0
longitude	-4243.0
▁Je	-4244.0
▁pra	-4245.0
▁iti	-4246.0
▁sz	-4247.0
ES	-4248.0
appear	-4249.0
io	-4250.0
reply	-4251.0
pulse	-4252.0
Station	-4253.0
▁contain	-4254.0
▁Checks	-4255.0
Pods	-4256.0
2,	-4257.0
replacement	-4258.0
sting	-4259.0
▁jeg	-4260.0
▁reappear	-4261.0
▁evaluate	-4262.0
▁raw	-4263.0
▁от	-4264.0
supp	-4265.0
Schedule	-4266.0
latitude	-4267.0
▁και	-4268.0
▁resurface	-4269.0
▁vet	-4270.0
Unique	-4271.0
routines	-4272.0
Flight	-4273.0
▁turns	-4274.0
▁constra	-4275.0
▁analyze	-4276.0
▁aut	-4277.0
Snap	-4278.0
▁todo	-4279.0
▁für	-4280.0
▁geographic	-4281.0
▁om	-4282.0
▁members	-4283.0
▁breastfeeding	-4284.0
▁bibliographic	-4285.0
▁bl	-4286.0
▁previously	-4287.0
▁hide	-4288.0
Finds	-4289.0
ingredient	-4290.0
ync	-4291.0
▁weight	-4292.0
▁gardening	-4293.0
JBL	-4294.0
streaming	-4295.0
▁indicating	-4296.0
fies	-4297.0
▁basic	-4298.0
leave	-4299.0
▁gigaby	-4300.0
▁arrives	-4301.0
pinned	-4302.0
hotels	-4303.0
school	-4304.0
meters	-4305.0
▁audi	-4306.0
де	-4307.0
ney	-4308.0
мо	-4309.0
potify	-4310.0
ww	-4311.0
▁rain	-4312.0
fication	-4313.0
ested	-4314.0
Explicit	-4315.0
ме	-4316.0
▁mijn	-4317.0
NPR	-4318.0
pted	-4319.0
txt	-4320.0
▁sender	-4321.0
▁observation	-4322.0
":10}}]	-4323.0
_20	-4324.0
▁ringing	-4325.0
▁Is	-4326.0
▁select	-4327.0
▁mis	-4328.0
▁id	-4329.0
▁constraint	-4330.0
▁pH	-4331.0
▁som	-4332.0
▁gigabytes	-4333.0
tima	-4334.0
ві	-4335.0
▁Use	-4336.0
_33	-4337.0
▁cards	-4338.0
pare	-4339.0
Show	-4340.0
lick	-4341.0
▁feature	-4342.0
ountain	-4343.0
▁disconnect	-4344.0
▁instead	-4345.0
01.1	-4346.0
ged	-4347.0
Data	-4348.0
▁calculations	-4349.0
▁routines	-4350.0
▁timeframe	-4351.0
Booking	-4352.0
ся	-4353.0
▁https	-4354.0
▁channel	-4355.0
ointment	-4356.0
▁module	-4357.0
▁expires	-4358.0
trim	-4359.0
rehensi	-4360.0
▁stations	-4361.0
▁guide	-4362.0
perties	-4363.0
▁spam	-4364.0
▁iz	-4365.0
▁itinerary	-4366.0
Schedules	-4367.0
rehensive	-4368.0
▁flow	-4369.0
connector	-4370.0
▁del	-4371.0
▁5).","	-4372.0
La	-4373.0
ggs	-4374.0
AirPods	-4375.0
▁So	-4376.0
amping	-4377.0
▁'101.1	-4378.0
-7	-4379.0
charge	-4380.0
▁let	-4381.0
dimensions	-4382.0
▁group	-4383.0
tend	-4384.0
_11	-4385.0
▁canceled	-4386.0
▁cla	-4387.0
5,"	-4388.0
ní	-4389.0
▁constraints	-4390.0
▁timeout	-4391.0
▁musical	-4392.0
▁comprehensive	-4393.0
opacity	-4394.0
▁heavy	-4395.0
▁boarding	-4396.0
▁math	-4397.0
arah	-4398.0
yscale	-4399.0
origin	-4400.0
▁requested	-4401.0
token	-4402.0
life	-4403.0
▁lin	-4404.0
atory	-4405.0
phabe	-4406.0
Location	-4407.0
▁average	-4408.0
":9	-4409.0
▁sam	-4410.0
tone	-4411.0
'?	-4412.0
ora	-4413.0
▁filtering	-4414.0
▁ak	-4415.0
▁render	-4416.0
▁overw	-4417.0
▁cu	-4418.0
▁sessions	-4419.0
▁cap	-4420.0
stamps	-4421.0
pression	-4422.0
ideas	-4423.0
lt	-4424.0
▁'3	-4425.0
лю	-4426.0
ina	-4427.0
▁program	-4428.0
gr	-4429.0
substitution	-4430.0
555	-4431.0
▁console	-4432.0
▁applied	-4433.0
▁30,	-4434.0
slow	-4435.0
abi	-4436.0
los	-4437.0
▁units	-4438.0
exchange	-4439.0
Skip	-4440.0
ntru	-4441.0
▁200	-4442.0
severity	-4443.0
travel	-4444.0
▁pentru	-4445.0
":3}}]	-4446.0
▁bra	-4447.0
▁ambient	-4448.0
()	-4449.0
▁audible	-4450.0
▁updated	-4451.0
▁triggers	-4452.0
renu	-4453.0
▁pronunciation	-4454.0
ssa	-4455.0
▁office	-4456.0
kg	-4457.0
▁object	-4458.0
ientific	-4459.0
ptive	-4460.0
astered	-4461.0
aded	-4462.0
▁minu	-4463.0
todo	-4464.0
API	-4465.0
▁users	-4466.0
▁multiple	-4467.0
▁terms	-4468.0
▁covered	-4469.0
tio	-4470.0
heat	-4471.0
▁rating	-4472.0
▁saves	-4473.0
▁для	-4474.0
▁μου	-4475.0
normal	-4476.0
Format	-4477.0
▁thanks	-4478.0
UA	-4479.0
▁low	-4480.0
▁collar	-4481.0
les	-4482.0
ту	-4483.0
▁pin	-4484.0
▁exchange	-4485.0
waypoints	-4486.0
-05	-4487.0
Exports	-4488.0
ky	-4489.0
▁expression	-4490.0
▁interface	-4491.0
ере	-4492.0
▁extr	-4493.0
▁exten	-4494.0
▁sal	-4495.0
dium	-4496.0
tasks	-4497.0
▁scientific	-4498.0
▁preference	-4499.0
▁descriptive	-4500.0
lient	-4501.0
phy	-4502.0
▁utilities	-4503.0
▁stro	-4504.0
ers	-4505.0
ollabor	-4506.0
HA	-4507.0
flights	-4508.0
▁seating	-4509.0
▁parked	-4510.0
▁connectivity	-4511.0
4","	-4512.0
▁az	-4513.0
▁library	-4514.0
▁то	-4515.0
▁manip	-4516.0
▁manipulation	-4517.0
renuous	-4518.0
Evaluate	-4519.0
MO	-4520.0
▁tele	-4521.0
▁kun	-4522.0
ringtone	-4523.0
▁reply	-4524.0
metronome	-4525.0
▁60,	-4526.0
▁Rap	-4527.0
URL	-4528.0
every	-4529.0
▁instructions	-4530.0
DL	-4531.0
Formats	-4532.0
watchlist	-4533.0
city	-4534.0
getables	-4535.0
ám	-4536.0
ρο	-4537.0
хо	-4538.0
▁weekday	-4539.0
ickname	-4540.0
ži	-4541.0
allowed	-4542.0
5}}]	-4543.0
avi	-4544.0
rand	-4545.0
123',	-4546.0
Disconnect	-4547.0
zed	-4548.0
phabetical	-4549.0
tan	-4550.0
▁120,	-4551.0
πο	-4552.0
▁diag	-4553.0
nks	-4554.0
▁replace	-4555.0
▁ну	-4556.0
delay	-4557.0
▁postal	-4558.0
▁expired	-4559.0
▁soli	-4560.0
▁Rapid	-4561.0
▁overlay	-4562.0
456'.","	-4563.0
▁RapidAPI	-4564.0
sz	-4565.0
▁replacing	-4566.0
pi	-4567.0
Tesla	-4568.0
▁hotels	-4569.0
▁generated	-4570.0
▁ä	-4571.0
ну	-4572.0
▁25	-4573.0
▁Start	-4574.0
▁к	-4575.0
ici	-4576.0
▁admin	-4577.0
▁categ	-4578.0
pair	-4579.0
push	-4580.0
▁seen	-4581.0
▁etc	-4582.0
▁permitted	-4583.0
ahead	-4584.0
nces	-4585.0
alphabetical	-4586.0
deMO	-4587.0
HAdeMO	-4588.0
fatima	-4589.0
▁der	-4590.0
omod	-4591.0
▁studied	-4592.0
▁partial	-4593.0
▁turned	-4594.0
CS	-4595.0
▁Default	-4596.0
ula	-4597.0
properties	-4598.0
heavy	-4599.0
when	-4600.0
aka	-4601.0
ec	-4602.0
▁ich	-4603.0
ita	-4604.0
less	-4605.0
omodoro	-4606.0
▁saying	-4607.0
fry	-4608.0
▁voting	-4609.0
Forget	-4610.0
▁prosím	-4611.0
participant	-4612.0
grayscale	-4613.0
▁sets	-4614.0
▁stays	-4615.0
▁pulse	-4616.0
Display	-4617.0
mits	-4618.0
▁dry	-4619.0
▁mand	-4620.0
Timeout	-4621.0
Minutes	-4622.0
2.	-4623.0
▁mit	-4624.0
Sort	-4625.0
▁300).","	-4626.0
▁numerical	-4627.0
▁motor	-4628.0
Record	-4629.0
climate	-4630.0
anish	-4631.0
▁tracked	-4632.0
▁gal	-4633.0
▁eh	-4634.0
ite	-4635.0
Tag	-4636.0
EST	-4637.0
eco	-4638.0
ando	-4639.0
▁έ	-4640.0
▁ku	-4641.0
ssible	-4642.0
▁analysis	-4643.0
ferences	-4644.0
▁Get	-4645.0
cooker	-4646.0
num	-4647.0
▁г	-4648.0
astery	-4649.0
ми	-4650.0
▁collabor	-4651.0
▁US	-4652.0
▁va	-4653.0
▁autonom	-4654.0
Temperature	-4655.0
append	-4656.0
ру	-4657.0
▁locate	-4658.0
▁Since	-4659.0
species	-4660.0
Dish	-4661.0
Run	-4662.0
▁Mateo	-4663.0
ful	-4664.0
CCS	-4665.0
▁they	-4666.0
ana	-4667.0
Return	-4668.0
replace	-4669.0
ani	-4670.0
▁στο	-4671.0
λε	-4672.0
ál	-4673.0
▁other	-4674.0
▁proceed	-4675.0
vance	-4676.0
▁mission	-4677.0
▁autonomous	-4678.0
":120	-4679.0
▁nie	-4680.0
.)	-4681.0
flashcards	-4682.0
▁climate	-4683.0
▁pu	-4684.0
▁(1-7	-4685.0
▁(1-7).","	-4686.0
jun	-4687.0
▁resource	-4688.0
cups	-4689.0
μα	-4690.0
▁har	-4691.0
cs	-4692.0
▁ви	-4693.0
▁cou	-4694.0
ár	-4695.0
▁stroke	-4696.0
▁bitte	-4697.0
▁camping	-4698.0
Export	-4699.0
good	-4700.0
renew	-4701.0
▁transfer	-4702.0
▁cars	-4703.0
ves	-4704.0
▁diagnostic	-4705.0
▁segment	-4706.0
transcribe	-4707.0
rename	-4708.0
pasta	-4709.0
choice	-4710.0
brant	-4711.0
lbs	-4712.0
loaded	-4713.0
ca	-4714.0
▁termin	-4715.0
▁flights	-4716.0
▁remind	-4717.0
▁both	-4718.0
register	-4719.0
rain	-4720.0
▁someone	-4721.0
▁Se	-4722.0
▁technical	-4723.0
attemp	-4724.0
eah	-4725.0
drinks	-4726.0
▁movement	-4727.0
▁lines	-4728.0
vegetables	-4729.0
formatted	-4730.0
CHAdeMO	-4731.0
ben	-4732.0
overnight	-4733.0
":30}}]	-4734.0
▁getting	-4735.0
Locate	-4736.0
cz	-4737.0
▁dog	-4738.0
rice	-4739.0
Pin	-4740.0
▁het	-4741.0
Submits	-4742.0
▁Priya	-4743.0
pect	-4744.0
_9	-4745.0
lis	-4746.0
attempt	-4747.0
anna	-4748.0
patch	-4749.0
4',	-4750.0
eggs	-4751.0
▁easy	-4752.0
qui	-4753.0
turbo	-4754.0
▁hex	-4755.0
witches	-4756.0
Current	-4757.0
▁inc	-4758.0
oriti	-4759.0
zones	-4760.0
chick	-4761.0
▁disc	-4762.0
▁numbers	-4763.0
collage	-4764.0
quick	-4765.0
":15}}]	-4766.0
but	-4767.0
luid	-4768.0
▁heatw	-4769.0
▁cooker	-4770.0
reheat	-4771.0
▁overwrite	-4772.0
▁ce	-4773.0
ση	-4774.0
diting	-4775.0
fuel	-4776.0
▁arra	-4777.0
▁lear	-4778.0
▁alongside	-4779.0
arranties	-4780.0
gis	-4781.0
▁mul	-4782.0
▁cities	-4783.0
ura	-4784.0
trast	-4785.0
▁timezones	-4786.0
▁release	-4787.0
flash	-4788.0
chicken	-4789.0
termilk	-4790.0
jem	-4791.0
promo	-4792.0
1"}}]	-4793.0
vaccination	-4794.0
▁cur	-4795.0
horn	-4796.0
15	-4797.0
80	-4798.0
ци	-4799.0
Preheat	-4800.0
height	-4801.0
▁invite	-4802.0
▁prevents	-4803.0
honk	-4804.0
▁eu	-4805.0
▁Am	-4806.0
▁/	-4807.0
iv	-4808.0
▁matter	-4809.0
▁led	-4810.0
▁she	-4811.0
▁enabled	-4812.0
launch	-4813.0
aks	-4814.0
subtitles	-4815.0
▁initial	-4816.0
▁imp	-4817.0
hie	-4818.0
▁kon	-4819.0
ска	-4820.0
▁stored	-4821.0
▁sit	-4822.0
▁substitution	-4823.0
▁chart	-4824.0
ars	-4825.0
alk	-4826.0
▁fo	-4827.0
▁till	-4828.0
▁book	-4829.0
expired	-4830.0
":5,"	-4831.0
lish	-4832.0
▁bus	-4833.0
▁appending	-4834.0
▁με	-4835.0
live	-4836.0
▁Send	-4837.0
▁prioriti	-4838.0
lena	-4839.0
▁prom	-4840.0
stitute	-4841.0
estination	-4842.0
▁uploaded	-4843.0
▁2024	-4844.0
Destination	-4845.0
rest	-4846.0
before	-4847.0
▁een	-4848.0
▁?	-4849.0
spo	-4850.0
ulu	-4851.0
buttermilk	-4852.0
▁hourly	-4853.0
▁é	-4854.0
cer	-4855.0
supplies	-4856.0
▁connector	-4857.0
▁substitute	-4858.0
Removes	-4859.0
ux	-4860.0
vibrant	-4861.0
▁agg	-4862.0
ás	-4863.0
grid	-4864.0
tinue	-4865.0
ρι	-4866.0
zing	-4867.0
rewind	-4868.0
▁Yuki	-4869.0
▁trigge	-4870.0
▁funds	-4871.0
▁mandatory	-4872.0
reminders	-4873.0
▁Hiroshi	-4874.0
▁grow	-4875.0
ista	-4876.0
▁haven	-4877.0
3","	-4878.0
maker	-4879.0
▁instantly	-4880.0
▁filtration	-4881.0
tos	-4882.0
ні	-4883.0
ас	-4884.0
fia	-4885.0
▁often	-4886.0
raft	-4887.0
át	-4888.0
сь	-4889.0
▁repair	-4890.0
▁sile	-4891.0
teri	-4892.0
▁ends	-4893.0
▁Me	-4894.0
▁minut	-4895.0
cery	-4896.0
Forward	-4897.0
▁ра	-4898.0
▁assignments	-4899.0
leaving	-4900.0
ribution	-4901.0
ря	-4902.0
Stre	-4903.0
▁asset	-4904.0
▁numeric	-4905.0
▁Dis	-4906.0
▁vy	-4907.0
":"/	-4908.0
sound	-4909.0
né	-4910.0
netflix	-4911.0
▁heating	-4912.0
tro	-4913.0
nie	-4914.0
gisters	-4915.0
Origin	-4916.0
doc	-4917.0
Registers	-4918.0
▁queue	-4919.0
▁fluid	-4920.0
▁possible	-4921.0
▁freezer	-4922.0
ши	-4923.0
▁"1	-4924.0
▁yeah	-4925.0
▁needs	-4926.0
_4	-4927.0
fon	-4928.0
uk	-4929.0
▁integer	-4930.0
invert	-4931.0
▁translation	-4932.0
ament	-4933.0
▁dispatch	-4934.0
до	-4935.0
utc	-4936.0
νο	-4937.0
än	-4938.0
eder	-4939.0
lat	-4940.0
ginner	-4941.0
▁mig	-4942.0
▁going	-4943.0
▁nutrient	-4944.0
vanced	-4945.0
▁watchlist	-4946.0
▁instru	-4947.0
colors	-4948.0
▁ready	-4949.0
▁ton	-4950.0
ду	-4951.0
▁Add	-4952.0
lle	-4953.0
▁ledger	-4954.0
▁sleeping	-4955.0
tenna	-4956.0
ported	-4957.0
0000	-4958.0
▁prioritize	-4959.0
":20}}]	-4960.0
urse	-4961.0
USB	-4962.0
ography	-4963.0
iry	-4964.0
▁thematic	-4965.0
spoons	-4966.0
▁medium	-4967.0
▁phonetic	-4968.0
hourly	-4969.0
Flag	-4970.0
jek	-4971.0
▁deadlines	-4972.0
▁kas	-4973.0
":2}}]	-4974.0
).",	-4975.0
old	-4976.0
ami	-4977.0
xi	-4978.0
blob	-4979.0
▁activate	-4980.0
▁envi	-4981.0
nglish	-4982.0
▁ju	-4983.0
▁preferences	-4984.0
▁favor	-4985.0
izza	-4986.0
▁dollar	-4987.0
▁port	-4988.0
":"2023-1	-4989.0
▁Search	-4990.0
▁achievement	-4991.0
":"555	-4992.0
cia	-4993.0
▁monito	-4994.0
▁drawings	-4995.0
▁preset	-4996.0
valet	-4997.0
ід	-4998.0
▁impact	-4999.0
correct	-5000.0
τι	-5001.0
lus	-5002.0
resolution	-5003.0
▁No	-5004.0
за	-5005.0
си	-5006.0
idden	-5007.0
-12	-5008.0
bon	-5009.0
zę	-5010.0
▁transport	-5011.0
}},	-5012.0
uj	-5013.0
istration	-5014.0
▁ca	-5015.0
▁frame	-5016.0
5","	-5017.0
deadline	-5018.0
▁го	-5019.0
ār	-5020.0
serial	-5021.0
▁attend	-5022.0
width	-5023.0
reme	-5024.0
зи	-5025.0
base	-5026.0
▁maker	-5027.0
Channel	-5028.0
ounces	-5029.0
▁feeling	-5030.0
▁measurements	-5031.0
eded	-5032.0
▁vol	-5033.0
mis	-5034.0
▁valet	-5035.0
че	-5036.0
▁sta	-5037.0
napshot	-5038.0
-20	-5039.0
▁nickname	-5040.0
feeder	-5041.0
▁milliseconds	-5042.0
▁appointment	-5043.0
▁Turn	-5044.0
▁ty	-5045.0
▁logged	-5046.0
▁learned	-5047.0
riz	-5048.0
клю	-5049.0
4,	-5050.0
logs	-5051.0
Where	-5052.0
cky	-5053.0
9"}}]	-5054.0
▁но	-5055.0
cas	-5056.0
example	-5057.0
APA	-5058.0
ón	-5059.0
.5}}]	-5060.0
alib	-5061.0
▁loo	-5062.0
Charge	-5063.0
▁silent	-5064.0
▁template	-5065.0
▁element	-5066.0
ado	-5067.0
▁horn	-5068.0
▁annual	-5069.0
.5,"	-5070.0
":45}}]	-5071.0
ret	-5072.0
jen	-5073.0
tablespoons	-5074.0
▁transcribe	-5075.0
▁wor	-5076.0
▁enables	-5077.0
33	-5078.0
▁objects	-5079.0
▁convection	-5080.0
sim	-5081.0
antenna	-5082.0
▁doors	-5083.0
▁500	-5084.0
expiry	-5085.0
▁onto	-5086.0
oothie	-5087.0
▁dar	-5088.0
пис	-5089.0
▁és	-5090.0
▁Uh	-5091.0
▁quiet	-5092.0
▁overnight	-5093.0
▁looking	-5094.0
Tok	-5095.0
manual	-5096.0
lan	-5097.0
brew	-5098.0
▁integr	-5099.0
се	-5100.0
▁tonight	-5101.0
solids	-5102.0
▁confi	-5103.0
Rename	-5104.0
500	-5105.0
▁environ	-5106.0
zn	-5107.0
▁meg	-5108.0
▁мен	-5109.0
▁essenti	-5110.0
▁ü	-5111.0
oni	-5112.0
εις	-5113.0
▁50-100	-5114.0
1,	-5115.0
umi	-5116.0
Fatima	-5117.0
▁kad	-5118.0
▁visit	-5119.0
▁pod	-5120.0
▁lap	-5121.0
trunk	-5122.0
roller	-5123.0
dig	-5124.0
▁subtitles	-5125.0
▁sending	-5126.0
strong	-5127.0
▁attende	-5128.0
▁invited	-5129.0
ercises	-5130.0
▁planning	-5131.0
▁ali	-5132.0
▁launches	-5133.0
▁\"	-5134.0
watching	-5135.0
▁555	-5136.0
▁už	-5137.0
continue	-5138.0
mend	-5139.0
Remote	-5140.0
sample	-5141.0
▁Open	-5142.0
▁elements	-5143.0
▁aggreg	-5144.0
uv	-5145.0
▁transpare	-5146.0
org	-5147.0
▁dimensions	-5148.0
ej	-5149.0
▁cru	-5150.0
▁conti	-5151.0
▁gym	-5152.0
Me	-5153.0
▁kö	-5154.0
nity	-5155.0
▁trunk	-5156.0
▁dan	-5157.0
akt	-5158.0
▁attendance	-5159.0
▁vertical	-5160.0
▁Kwame	-5161.0
uder	-5162.0
▁rewind	-5163.0
▁integrated	-5164.0
ες	-5165.0
▁gr	-5166.0
ISO	-5167.0
▁movies	-5168.0
prime	-5169.0
▁USD	-5170.0
бо	-5171.0
▁prompt	-5172.0
▁monitoring	-5173.0
notations	-5174.0
▁rendering	-5175.0
▁Tok	-5176.0
▁mus	-5177.0
riend	-5178.0
▁PM	-5179.0
▁sent	-5180.0
▁bibliography	-5181.0
▁ú	-5182.0
":60}}]	-5183.0
timestamp	-5184.0
etflix	-5185.0
▁hidden	-5186.0
▁jak	-5187.0
deadlines	-5188.0
▁ö	-5189.0
":"2024	-5190.0
ameter	-5191.0
▁40	-5192.0
Input	-5193.0
mar	-5194.0
▁intake	-5195.0
smart	-5196.0
Switches	-5197.0
▁auf	-5198.0
▁2',	-5199.0
▁1',	-5200.0
hosting	-5201.0
▁vari	-5202.0
▁array	-5203.0
▁amounts	-5204.0
▁ма	-5205.0
▁wifi	-5206.0
▁при	-5207.0
uo	-5208.0
yd	-5209.0
▁prote	-5210.0
▁sch	-5211.0
▁called	-5212.0
template	-5213.0
▁returned	-5214.0
omi	-5215.0
fertilizer	-5216.0
pa	-5217.0
▁rog	-5218.0
MLA	-5219.0
▁ur	-5220.0
dien	-5221.0
▁Pre	-5222.0
▁Create	-5223.0
▁var	-5224.0
▁flag	-5225.0
5,	-5226.0
yt	-5227.0
Chicago	-5228.0
▁None	-5229.0
Honk	-5230.0
▁diameter	-5231.0
▁exercises	-5232.0
Mo	-5233.0
monitor	-5234.0
component	-5235.0
▁cartridge	-5236.0
▁images	-5237.0
▁Amara	-5238.0
рі	-5239.0
Imports	-5240.0
▁spo	-5241.0
ctors	-5242.0
▁q	-5243.0
peti	-5244.0
▁Po	-5245.0
ég	-5246.0
▁calculate	-5247.0
mild	-5248.0
▁editing	-5249.0
atches	-5250.0
▁entries	-5251.0
▁Inst	-5252.0
hold	-5253.0
enji	-5254.0
▁ghosting	-5255.0
▁vä	-5256.0
▁pairs	-5257.0
van	-5258.0
sentation	-5259.0
▁Stop	-5260.0
pomodoro	-5261.0
000}}]	-5262.0
▁would	-5263.0
sync	-5264.0
▁essential	-5265.0
▁comments	-5266.0
verages	-5267.0
7","	-5268.0
▁бу	-5269.0
ID	-5270.0
▁put	-5271.0
▁Be	-5272.0
▁immediate	-5273.0
▁patter	-5274.0
▁14	-5275.0
dzu	-5276.0
nting	-5277.0
lej	-5278.0
▁collaborative	-5279.0
▁что	-5280.0
▁summarize	-5281.0
▁continu	-5282.0
▁consi	-5283.0
11	-5284.0
ube	-5285.0
ба	-5286.0
onna	-5287.0
сти	-5288.0
▁і	-5289.0
▁lä	-5290.0
▁radius	-5291.0
▁men	-5292.0
▁counter	-5293.0
Launches	-5294.0
▁controller	-5295.0
sto	-5296.0
▁part	-5297.0
brushes	-5298.0
▁age	-5299.0
▁strenuous	-5300.0
▁vai	-5301.0
▁dom	-5302.0
▁pag	-5303.0
resses	-5304.0
ising	-5305.0
▁accepted	-5306.0
af	-5307.0
ung	-5308.0
.2	-5309.0
mium	-5310.0
▁че	-5311.0
▁warranties	-5312.0
▁Te	-5313.0
▁cloud	-5314.0
7"}}]	-5315.0
▁rot	-5316.0
▁timestamps	-5317.0
▁zap	-5318.0
▁sticky	-5319.0
▁Log	-5320.0
▁ре	-5321.0
▁course	-5322.0
fession	-5323.0
▁promo	-5324.0
▁correctly	-5325.0
Rewind	-5326.0
orted	-5327.0
▁priority	-5328.0
▁silence	-5329.0
▁super	-5330.0
english	-5331.0
Flash	-5332.0
itko	-5333.0
ala	-5334.0
ini	-5335.0
му	-5336.0
сто	-5337.0
4"}}]	-5338.0
▁Kan	-5339.0
ér	-5340.0
▁keeps	-5341.0
▁Delete	-5342.0
▁mountain	-5343.0
▁needed	-5344.0
▁transparency	-5345.0
με	-5346.0
spanish	-5347.0
▁comm	-5348.0
▁kids	-5349.0
▁public	-5350.0
▁iš	-5351.0
▁attendees	-5352.0
rise	-5353.0
vere	-5354.0
▁hazardous	-5355.0
disney	-5356.0
▁reference	-5357.0
▁nä	-5358.0
▁localized	-5359.0
Be	-5360.0
▁ц	-5361.0
▁team	-5362.0
▁non	-5363.0
han	-5364.0
▁Li	-5365.0
▁из	-5366.0
σε	-5367.0
▁overview	-5368.0
▁noti	-5369.0
▁fitness	-5370.0
▁sing	-5371.0
το	-5372.0
па	-5373.0
":10,"	-5374.0
▁checking	-5375.0
kon	-5376.0
▁heatwaves	-5377.0
▁household	-5378.0
▁Instagram	-5379.0
hulu	-5380.0
Gro	-5381.0
Streaming	-5382.0
tional	-5383.0
ures	-5384.0
movies	-5385.0
πό	-5386.0
▁па	-5387.0
▁actors	-5388.0
lig	-5389.0
▁still	-5390.0
tta	-5391.0
▁extruder	-5392.0
▁backlight	-5393.0
Project	-5394.0
▁working	-5395.0
▁inventory	-5396.0
5.	-5397.0
▁invoice	-5398.0
▁sounding	-5399.0
achi	-5400.0
preference	-5401.0
contrast	-5402.0
-99	-5403.0
▁symptoms	-5404.0
rá	-5405.0
▁90	-5406.0
▁Ch	-5407.0
▁Di	-5408.0
▁ħ	-5409.0
▁click	-5410.0
vet	-5411.0
▁continuous	-5412.0
formula	-5413.0
▁brake	-5414.0
▁pie	-5415.0
fessional	-5416.0
▁ли	-5417.0
▁Ne	-5418.0
▁tam	-5419.0
▁exactly	-5420.0
▁How	-5421.0
▁safe	-5422.0
vu	-5423.0
ica	-5424.0
▁cruising	-5425.0
▁center	-5426.0
":20,"	-5427.0
▁ein	-5428.0
▁sem	-5429.0
▁Also	-5430.0
nik	-5431.0
acce	-5432.0
▁valve	-5433.0
Subtitle	-5434.0
uter	-5435.0
▁result	-5436.0
▁пере	-5437.0
dy	-5438.0
grow	-5439.0
▁hogy	-5440.0
жа	-5441.0
jective	-5442.0
beverages	-5443.0
▁sus	-5444.0
ais	-5445.0
▁mes	-5446.0
▁ext	-5447.0
sun	-5448.0
":30,"	-5449.0
▁ο	-5450.0
docx	-5451.0
zes	-5452.0
acebook	-5453.0
sem	-5454.0
?","	-5455.0
_123	-5456.0
▁photogra	-5457.0
lighting	-5458.0
▁flo	-5459.0
▁19	-5460.0
vin	-5461.0
zen	-5462.0
▁tie	-5463.0
lla	-5464.0
stency	-5465.0
▁Con	-5466.0
cht	-5467.0
":0.	-5468.0
▁palun	-5469.0
snapshot	-5470.0
nes	-5471.0
▁lunch	-5472.0
▁că	-5473.0
ogħ	-5474.0
▁br	-5475.0
ít	-5476.0
ming	-5477.0
▁consistency	-5478.0
▁single	-5479.0
▁solid	-5480.0
use	-5481.0
10	-5482.0
ped	-5483.0
▁wind	-5484.0
ried	-5485.0
5"}}]	-5486.0
:00","	-5487.0
789	-5488.0
▁toggles	-5489.0
▁una	-5490.0
▁ide	-5491.0
▁extension	-5492.0
▁bake	-5493.0
▁extreme	-5494.0
tracts	-5495.0
tence	-5496.0
:00"}}]	-5497.0
▁kol	-5498.0
offset	-5499.0
▁his	-5500.0
_66	-5501.0
▁laptop	-5502.0
▁values	-5503.0
sus	-5504.0
▁environmental	-5505.0
▁ek	-5506.0
▁near	-5507.0
▁är	-5508.0
manent	-5509.0
aced	-5510.0
ero	-5511.0
▁administration	-5512.0
":50,"	-5513.0
▁plants	-5514.0
▁ask	-5515.0
▁heading	-5516.0
▁ei	-5517.0
▁mar	-5518.0
-2	-5519.0
▁egy	-5520.0
▁les	-5521.0
ability	-5522.0
atu	-5523.0
overlay	-5524.0
▁že	-5525.0
▁import	-5526.0
hiroshi	-5527.0
.8	-5528.0
▁hmm	-5529.0
antiago	-5530.0
▁wake	-5531.0
":1}}]	-5532.0
▁meu	-5533.0
ключи	-5534.0
vest	-5535.0
alle	-5536.0
τά	-5537.0
▁stan	-5538.0
▁trim	-5539.0
▁severe	-5540.0
isitko	-5541.0
ics	-5542.0
▁manage	-5543.0
achieve	-5544.0
▁ahead	-5545.0
definition	-5546.0
▁mastered	-5547.0
▁dollars	-5548.0
▁addresses	-5549.0
▁tablet	-5550.0
▁exam	-5551.0
▁mixed	-5552.0
▁għal	-5553.0
'..","	-5554.0
ър	-5555.0
▁studying	-5556.0
▁cuts	-5557.0
▁Tokyo	-5558.0
transfer	-5559.0
review	-5560.0
":200,"	-5561.0
▁cas	-5562.0
▁appliances	-5563.0
beginner	-5564.0
▁leave	-5565.0
achieved	-5566.0
▁Jeg	-5567.0
mendations	-5568.0
1.	-5569.0
tool	-5570.0
":15,"	-5571.0
tre	-5572.0
▁pop	-5573.0
▁sunlight	-5574.0
mate	-5575.0
▁annotations	-5576.0
▁accounts	-5577.0
una	-5578.0
▁deci	-5579.0
program	-5580.0
pes	-5581.0
▁permanent	-5582.0
partial	-5583.0
yk	-5584.0
olved	-5585.0
▁wanna	-5586.0
▁ear	-5587.0
▁support	-5588.0
žeš	-5589.0
▁business	-5590.0
apa	-5591.0
▁fa	-5592.0
tips	-5593.0
▁specify	-5594.0
bok	-5595.0
▁finally	-5596.0
▁со	-5597.0
▁mastery	-5598.0
kend	-5599.0
▁offline	-5600.0
ία	-5601.0
▁lah	-5602.0
cont	-5603.0
json	-5604.0
▁soon	-5605.0
":3,"	-5606.0
cket	-5607.0
ino	-5608.0
ecute	-5609.0
▁quickly	-5610.0
▁Mi	-5611.0
▁Sarah	-5612.0
Fast	-5613.0
▁activi	-5614.0
▁ens	-5615.0
▁2023-1	-5616.0
▁tro	-5617.0
radius	-5618.0
▁practiced	-5619.0
▁την	-5620.0
år	-5621.0
zie	-5622.0
▁cameras	-5623.0
att	-5624.0
tet	-5625.0
▁mai	-5626.0
airo	-5627.0
▁List	-5628.0
lication	-5629.0
lling	-5630.0
▁gre	-5631.0
":"0	-5632.0
dity	-5633.0
▁pull	-5634.0
▁offici	-5635.0
assets	-5636.0
2.5	-5637.0
▁train	-5638.0
▁pred	-5639.0
▁dispen	-5640.0
company	-5641.0
mateo	-5642.0
render	-5643.0
frost	-5644.0
▁λ	-5645.0
aiting	-5646.0
":45,"	-5647.0
las	-5648.0
":50}}]	-5649.0
▁activities	-5650.0
▁preci	-5651.0
▁config	-5652.0
▁install	-5653.0
mission	-5654.0
ны	-5655.0
anaka	-5656.0
petition	-5657.0
▁ame	-5658.0
▁living	-5659.0
▁pos	-5660.0
▁cited	-5661.0
stones	-5662.0
▁ist	-5663.0
uto	-5664.0
iso	-5665.0
acted	-5666.0
▁found	-5667.0
hu	-5668.0
▁Ma	-5669.0
▁moving	-5670.0
τε	-5671.0
▁ве	-5672.0
▁promotional	-5673.0
ši	-5674.0
chan	-5675.0
▁mein	-5676.0
▁Mei	-5677.0
▁supplies	-5678.0
ama	-5679.0
▁naar	-5680.0
▁em	-5681.0
▁triggering	-5682.0
тра	-5683.0
▁even	-5684.0
ouT	-5685.0
▁bank	-5686.0
ouTube	-5687.0
▁opacity	-5688.0
▁oh	-5689.0
patches	-5690.0
▁sim	-5691.0
▁RSVPs	-5692.0
▁dim	-5693.0
▁him	-5694.0
▁posi	-5695.0
coordin	-5696.0
▁instrument	-5697.0
▁added	-5698.0
Dispatches	-5699.0
▁sounds	-5700.0
▁sum	-5701.0
▁clos	-5702.0
▁view	-5703.0
ational	-5704.0
▁moje	-5705.0
▁ста	-5706.0
би	-5707.0
tim	-5708.0
lities	-5709.0
duc	-5710.0
Fetch	-5711.0
▁cud	-5712.0
era	-5713.0
▁Sp	-5714.0
▁adds	-5715.0
":5}},{"	-5716.0
ban	-5717.0
▁our	-5718.0
▁types	-5719.0
var	-5720.0
▁kont	-5721.0
▁Ko	-5722.0
▁Ex	-5723.0
zt	-5724.0
sel	-5725.0
▁telefon	-5726.0
tage	-5727.0
_99","	-5728.0
▁Mo	-5729.0
īt	-5730.0
▁waiting	-5731.0
":4}}]	-5732.0
Fan	-5733.0
sur	-5734.0
vé	-5735.0
▁shi	-5736.0
▁country	-5737.0
ues	-5738.0
ury	-5739.0
omiting	-5740.0
sol	-5741.0
ublis	-5742.0
nger	-5743.0
uni	-5744.0
serve	-5745.0
verified	-5746.0
▁discount	-5747.0
▁ger	-5748.0
lass	-5749.0
jas	-5750.0
▁ме	-5751.0
мен	-5752.0
▁objective	-5753.0
▁fonts	-5754.0
vaj	-5755.0
▁telemetry	-5756.0
nen	-5757.0
priya	-5758.0
www	-5759.0
▁invert	-5760.0
freezer	-5761.0
▁definitions	-5762.0
▁wy	-5763.0
rei	-5764.0
▁charges	-5765.0
▁main	-5766.0
del	-5767.0
vates	-5768.0
8","	-5769.0
▁gonna	-5770.0
ico	-5771.0
▁las	-5772.0
▁Elena	-5773.0
▁rotations	-5774.0
▁passed	-5775.0
BN	-5776.0
▁speaking	-5777.0
Mateo	-5778.0
ут	-5779.0
▁aid	-5780.0
▁printing	-5781.0
▁identification	-5782.0
▁ben	-5783.0
▁ratio	-5784.0
prise	-5785.0
ftware	-5786.0
via	-5787.0
νε	-5788.0
▁Twitter	-5789.0
spection	-5790.0
amen	-5791.0
▁си	-5792.0
▁away	-5793.0
profile	-5794.0
ye	-5795.0
▁Chen	-5796.0
▁birthday	-5797.0
dry	-5798.0
"}},	-5799.0
jekt	-5800.0
arest	-5801.0
_10	-5802.0
havi	-5803.0
Pre	-5804.0
▁lista	-5805.0
umidity	-5806.0
▁maintaining	-5807.0
▁speech	-5808.0
αλ	-5809.0
▁beh	-5810.0
▁fresh	-5811.0
▁jogħ	-5812.0
translation	-5813.0
ular	-5814.0
aro	-5815.0
▁Su	-5816.0
▁Just	-5817.0
▁red	-5818.0
metric	-5819.0
▁colors	-5820.0
мі	-5821.0
▁compartment	-5822.0
▁IS	-5823.0
▁worried	-5824.0
▁sample	-5825.0
▁invol	-5826.0
▁containing	-5827.0
▁Spotify	-5828.0
▁Oh	-5829.0
":18	-5830.0
ază	-5831.0
kit	-5832.0
kwame	-5833.0
havior	-5834.0
пра	-5835.0
▁tires	-5836.0
▁spoken	-5837.0
▁assets	-5838.0
▁sy	-5839.0
▁150	-5840.0
▁τι	-5841.0
▁lahko	-5842.0
▁photograph	-5843.0
▁σε	-5844.0
learning	-5845.0
ontal	-5846.0
laus	-5847.0
box	-5848.0
raš	-5849.0
▁18	-5850.0
▁х	-5851.0
outdoor	-5852.0
▁Ik	-5853.0
лед	-5854.0
▁Hmm	-5855.0
▁stuck	-5856.0
kel	-5857.0
▁Ti	-5858.0
gue	-5859.0
νη	-5860.0
yuki	-5861.0
▁бо	-5862.0
vers	-5863.0
▁skin	-5864.0
▁categori	-5865.0
▁categories	-5866.0
▁stri	-5867.0
▁kur	-5868.0
об	-5869.0
▁behavior	-5870.0
98	-5871.0
Modi	-5872.0
▁computer	-5873.0
Modifies	-5874.0
pack	-5875.0
▁ensure	-5876.0
ча	-5877.0
advanced	-5878.0
▁valid	-5879.0
▁client	-5880.0
lack	-5881.0
▁pla	-5882.0
▁specifying	-5883.0
gle	-5884.0
Side	-5885.0
▁positive	-5886.0
▁son	-5887.0
▁professional	-5888.0
▁involves	-5889.0
▁lai	-5890.0
▁disabled	-5891.0
Marks	-5892.0
▁ISBN	-5893.0
solid	-5894.0
wa	-5895.0
-10	-5896.0
▁extra	-5897.0
3"}}]	-5898.0
ano	-5899.0
tier	-5900.0
▁cer	-5901.0
eri	-5902.0
▁cat	-5903.0
":12}}]	-5904.0
▁excur	-5905.0
▁τα	-5906.0
▁x	-5907.0
лі	-5908.0
▁confirm	-5909.0
▁everything	-5910.0
▁navi	-5911.0
3,	-5912.0
▁botan	-5913.0
▁parameters	-5914.0
▁88	-5915.0
▁potre	-5916.0
ικ	-5917.0
▁""}}},	-5918.0
mati	-5919.0
vat	-5920.0
▁lige	-5921.0
Des	-5922.0
Cuts	-5923.0
complete	-5924.0
▁distr	-5925.0
_101	-5926.0
fonts	-5927.0
▁native	-5928.0
▁portal	-5929.0
une	-5930.0
öö	-5931.0
▁aggregated	-5932.0
▁fu	-5933.0
zu	-5934.0
▁busy	-5935.0
▁Update	-5936.0
▁titled	-5937.0
▁kā	-5938.0
preheat	-5939.0
▁hier	-5940.0
look	-5941.0
owe	-5942.0
▁An	-5943.0
astav	-5944.0
lik	-5945.0
intermediate	-5946.0
▁Le	-5947.0
▁ga	-5948.0
▁botanical	-5949.0
▁fertili	-5950.0
mastered	-5951.0
smoothie	-5952.0
▁Cha	-5953.0
gps	-5954.0
▁foto	-5955.0
▁qed	-5956.0
kl	-5957.0
▁jekk	-5958.0
vestment	-5959.0
porary	-5960.0
hn	-5961.0
▁pati	-5962.0
det	-5963.0
stu	-5964.0
▁Sh	-5965.0
▁filters	-5966.0
sec	-5967.0
vomiting	-5968.0
луш	-5969.0
▁Okay	-5970.0
usi	-5971.0
▁zip	-5972.0
zo	-5973.0
kun	-5974.0
ratio	-5975.0
▁nighttime	-5976.0
▁rent	-5977.0
▁vaccination	-5978.0
▁prosim	-5979.0
▁съ	-5980.0
▁80	-5981.0
umeric	-5982.0
000,"	-5983.0
!"}}]	-5984.0
▁counts	-5985.0
lij	-5986.0
zd	-5987.0
▁While	-5988.0
▁sentence	-5989.0
▁cleaning	-5990.0
▁во	-5991.0
▁пре	-5992.0
public	-5993.0
▁located	-5994.0
:15	-5995.0
▁rela	-5996.0
ral	-5997.0
ens	-5998.0
Publis	-5999.0
aspect	-6000.0
▁configuration	-6001.0
▁Qu	-6002.0
▁walking	-6003.0
▁äh	-6004.0
▁organiz	-6005.0
Publishes	-6006.0
▁aj	-6007.0
Cancels	-6008.0
Pushes	-6009.0
▁une	-6010.0
▁terrain	-6011.0
▁stool	-6012.0
кі	-6013.0
▁Th	-6014.0
▁walk	-6015.0
cessful	-6016.0
▁replaced	-6017.0
▁survi	-6018.0
▁mind	-6019.0
▁origin	-6020.0
▁99	-6021.0
▁cancels	-6022.0
▁Switch	-6023.0
▁Facebook	-6024.0
exten	-6025.0
▁εί	-6026.0
":2,"	-6027.0
▁хо	-6028.0
▁Share	-6029.0
ей	-6030.0
ough	-6031.0
cing	-6032.0
▁tai	-6033.0
▁τον	-6034.0
_2024	-6035.0
pan	-6036.0
key	-6037.0
matically	-6038.0
ins	-6039.0
missed	-6040.0
▁alph	-6041.0
▁schedules	-6042.0
▁might	-6043.0
ante	-6044.0
▁exported	-6045.0
▁Kenji	-6046.0
lier	-6047.0
anumeric	-6048.0
▁alphanumeric	-6049.0
ρό	-6050.0
▁game	-6051.0
▁effective	-6052.0
▁cache	-6053.0
τη	-6054.0
▁repairs	-6055.0
▁App	-6056.0
eu	-6057.0
▁survival	-6058.0
▁appro	-6059.0
▁colle	-6060.0
▁mechan	-6061.0
γο	-6062.0
ida	-6063.0
▁free	-6064.0
▁excursion	-6065.0
▁Min	-6066.0
▁sty	-6067.0
ht	-6068.0
cipitation	-6069.0
crib	-6070.0
oj	-6071.0
ekend	-6072.0
▁names	-6073.0
ump	-6074.0
▁recommendations	-6075.0
▁ett	-6076.0
maining	-6077.0
partments	-6078.0
ult	-6079.0
▁waypoint	-6080.0
▁hu	-6081.0
Priya	-6082.0
▁drills	-6083.0
▁section	-6084.0
ors	-6085.0
aris	-6086.0
▁hy	-6087.0
83	-6088.0
▁black	-6089.0
Groceries	-6090.0
▁amenity	-6091.0
▁Play	-6092.0
posit	-6093.0
▁де	-6094.0
▁nes	-6095.0
api	-6096.0
erlin	-6097.0
shop	-6098.0
▁tur	-6099.0
.7	-6100.0
click	-6101.0
▁broil	-6102.0
":0	-6103.0
▁cal	-6104.0
chic	-6105.0
casted	-6106.0
atur	-6107.0
mla	-6108.0
▁horiz	-6109.0
gnment	-6110.0
rif	-6111.0
).	-6112.0
eld	-6113.0
minute	-6114.0
alibrate	-6115.0
▁hotel	-6116.0
buy	-6117.0
▁hm	-6118.0
▁starts	-6119.0
Per	-6120.0
Automatically	-6121.0
▁sitting	-6122.0
crush	-6123.0
iem	-6124.0
lon	-6125.0
▁пос	-6126.0
▁dealer	-6127.0
▁provides	-6128.0
final	-6129.0
▁мне	-6130.0
▁forecasted	-6131.0
ship	-6132.0
mware	-6133.0
▁friend	-6134.0
house	-6135.0
ila	-6136.0
▁ou	-6137.0
ffect	-6138.0
▁This	-6139.0
▁bedroom	-6140.0
agy	-6141.0
extended	-6142.0
▁meine	-6143.0
▁UV	-6144.0
▁ž	-6145.0
ax	-6146.0
▁forecasts	-6147.0
ings	-6148.0
▁compartments	-6149.0
▁years	-6150.0
▁official	-6151.0
▁Wei	-6152.0
▁22	-6153.0
ager	-6154.0
жно	-6155.0
hy	-6156.0
chicago	-6157.0
▁veteri	-6158.0
tempo	-6159.0
▁visible	-6160.0
nsitive	-6161.0
":10}},{"	-6162.0
▁ze	-6163.0
cie	-6164.0
дь	-6165.0
пу	-6166.0
ці	-6167.0
▁mail	-6168.0
▁sn	-6169.0
sted	-6170.0
▁humidity	-6171.0
▁made	-6172.0
▁execute	-6173.0
▁está	-6174.0
▁metric	-6175.0
":25	-6176.0
ρά	-6177.0
▁под	-6178.0
Spotify	-6179.0
▁ти	-6180.0
rome	-6181.0
▁Sc	-6182.0
▁deacti	-6183.0
gate	-6184.0
Yuki	-6185.0
weight	-6186.0
▁shown	-6187.0
annual	-6188.0
Wipes	-6189.0
▁beginning	-6190.0
ony	-6191.0
application	-6192.0
▁sugge	-6193.0
▁contribution	-6194.0
draw	-6195.0
▁extended	-6196.0
▁@	-6197.0
▁aan	-6198.0
▁din	-6199.0
▁land	-6200.0
fil	-6201.0
▁income	-6202.0
▁Ro	-6203.0
.0}}]	-6204.0
remaining	-6205.0
▁Vi	-6206.0
▁hit	-6207.0
kri	-6208.0
▁sis	-6209.0
▁weekly	-6210.0
▁moj	-6211.0
▁pit	-6212.0
μέ	-6213.0
▁space	-6214.0
▁sunrise	-6215.0
Custom	-6216.0
▁signature	-6217.0
pr	-6218.0
timestamps	-6219.0
▁class	-6220.0
Hiroshi	-6221.0
ssä	-6222.0
са	-6223.0
_99"}}]	-6224.0
▁horizontal	-6225.0
▁bes	-6226.0
чно	-6227.0
"},"	-6228.0
country	-6229.0
dom	-6230.0
flow	-6231.0
▁temporary	-6232.0
ribute	-6233.0
Meeting	-6234.0
Fin	-6235.0
▁terminates	-6236.0
sarah	-6237.0
Length	-6238.0
utilities	-6239.0
76	-6240.0
▁ru	-6241.0
tenti	-6242.0
andro	-6243.0
▁soiled	-6244.0
▁akti	-6245.0
▁assist	-6246.0
▁Ich	-6247.0
lē	-6248.0
chart	-6249.0
cu	-6250.0
σω	-6251.0
▁об	-6252.0
▁indicator	-6253.0
▁prob	-6254.0
▁pä	-6255.0
▁mono	-6256.0
▁Tanaka	-6257.0
▁absol	-6258.0
▁κα	-6259.0
▁versus	-6260.0
ná	-6261.0
iring	-6262.0
▁Arjun	-6263.0
ipt	-6264.0
λα	-6265.0
noon	-6266.0
▁как	-6267.0
cre	-6268.0
54	-6269.0
▁Stre	-6270.0
▁11	-6271.0
▁zi	-6272.0
Kwame	-6273.0
ekk	-6274.0
▁sä	-6275.0
stroller	-6276.0
вер	-6277.0
▁tas	-6278.0
ople	-6279.0
dence	-6280.0
tric	-6281.0
sensors	-6282.0
▁Jap	-6283.0
uta	-6284.0
enti	-6285.0
rav	-6286.0
▁ker	-6287.0
cou	-6288.0
▁pad	-6289.0
▁Change	-6290.0
▁grocery	-6291.0
▁resting	-6292.0
łą	-6293.0
sage	-6294.0
ski	-6295.0
hel	-6296.0
▁dietary	-6297.0
▁għall	-6298.0
contribution	-6299.0
▁internet	-6300.0
ül	-6301.0
pha	-6302.0
ticker	-6303.0
visit	-6304.0
":"2023-10	-6305.0
▁ла	-6306.0
▁renewals	-6307.0
],	-6308.0
vä	-6309.0
▁бе	-6310.0
▁brand	-6311.0
ше	-6312.0
die	-6313.0
respon	-6314.0
▁preheat	-6315.0
бы	-6316.0
раз	-6317.0
sy	-6318.0
iving	-6319.0
vá	-6320.0
▁os	-6321.0
phones	-6322.0
midi	-6323.0
▁bright	-6324.0
icht	-6325.0
ран	-6326.0
gt	-6327.0
▁alright	-6328.0
▁ow	-6329.0
лушай	-6330.0
diag	-6331.0
iction	-6332.0
participants	-6333.0
He	-6334.0
sport	-6335.0
▁ná	-6336.0
custom	-6337.0
nto	-6338.0
tin	-6339.0
lar	-6340.0
tential	-6341.0
rum	-6342.0
▁expenses	-6343.0
00}},{"	-6344.0
▁old	-6345.0
▁Um	-6346.0
oul	-6347.0
ster	-6348.0
▁του	-6349.0
▁Wait	-6350.0
пе	-6351.0
▁assignee	-6352.0
andi	-6353.0
▁applies	-6354.0
rawd	-6355.0
▁fra	-6356.0
offline	-6357.0
lut	-6358.0
":"10	-6359.0
▁123	-6360.0
▁around	-6361.0
posure	-6362.0
allway	-6363.0
чу	-6364.0
din	-6365.0
90	-6366.0
▁tista	-6367.0
▁mano	-6368.0
▁-	-6369.0
▁parking	-6370.0
jet	-6371.0
▁closures	-6372.0
▁people	-6373.0
▁cream	-6374.0
formance	-6375.0
▁error	-6376.0
ение	-6377.0
ian	-6378.0
quid	-6379.0
ву	-6380.0
▁alle	-6381.0
lista	-6382.0
▁widgets	-6383.0
area	-6384.0
lj	-6385.0
.50	-6386.0
tron	-6387.0
жеш	-6388.0
2"}},{"	-6389.0
▁assignment	-6390.0
answers	-6391.0
":120}}]	-6392.0
▁burn	-6393.0
▁ones	-6394.0
▁mulle	-6395.0
ía	-6396.0
▁pattern	-6397.0
lek	-6398.0
▁vital	-6399.0
▁better	-6400.0
":4,"	-6401.0
▁receiving	-6402.0
Esti	-6403.0
▁three	-6404.0
ttp	-6405.0
▁Cancel	-6406.0
_01","	-6407.0
▁naj	-6408.0
▁responded	-6409.0
ów	-6410.0
▁bypass	-6411.0
▁czy	-6412.0
ét	-6413.0
▁example	-6414.0
stä	-6415.0
":"99	-6416.0
▁software	-6417.0
ās	-6418.0
mastery	-6419.0
▁kok	-6420.0
▁Make	-6421.0
▁override	-6422.0
▁mid	-6423.0
":0,"	-6424.0
▁мені	-6425.0
ulle	-6426.0
▁educ	-6427.0
inte	-6428.0
▁Sch	-6429.0
Must	-6430.0
▁πα	-6431.0
▁100","	-6432.0
percentage	-6433.0
▁complex	-6434.0
choices	-6435.0
▁bluetooth	-6436.0
▁mat	-6437.0
pid	-6438.0
λο	-6439.0
office	-6440.0
arma	-6441.0
▁szó	-6442.0
▁milestones	-6443.0
▁ener	-6444.0
лен	-6445.0
▁pen	-6446.0
hmed	-6447.0
▁fact	-6448.0
▁everyone	-6449.0
▁euh	-6450.0
ako	-6451.0
▁mean	-6452.0
▁original	-6453.0
pad	-6454.0
Link	-6455.0
▁feedings	-6456.0
▁aspect	-6457.0
▁pizza	-6458.0
funds	-6459.0
model	-6460.0
▁successful	-6461.0
▁solids	-6462.0
▁vote	-6463.0
ρω	-6464.0
▁tip	-6465.0
▁urgent	-6466.0
зо	-6467.0
▁vaj	-6468.0
llä	-6469.0
pur	-6470.0
!'	-6471.0
ska	-6472.0
ння	-6473.0
▁nearest	-6474.0
fter	-6475.0
ression	-6476.0
▁saaks	-6477.0
▁uit	-6478.0
nursing	-6479.0
▁"20	-6480.0
▁mess	-6481.0
mei	-6482.0
▁velo	-6483.0
▁modified	-6484.0
ään	-6485.0
▁afternoon	-6486.0
trate	-6487.0
Forces	-6488.0
▁deep	-6489.0
":8}}]	-6490.0
▁New	-6491.0
agen	-6492.0
ėt	-6493.0
▁Mark	-6494.0
▁board	-6495.0
▁Jag	-6496.0
gnific	-6497.0
▁protection	-6498.0
Extracts	-6499.0
identifier	-6500.0
onest	-6501.0
▁pixel	-6502.0
▁voltage	-6503.0
▁fuq	-6504.0
▁heated	-6505.0
▁cent	-6506.0
▁four	-6507.0
eš	-6508.0
OI	-6509.0
▁bat	-6510.0
▁broken	-6511.0
rooming	-6512.0
▁Ho	-6513.0
▁did	-6514.0
accepted	-6515.0
climbing	-6516.0
▁organize	-6517.0
fes	-6518.0
▁potential	-6519.0
lot	-6520.0
hose	-6521.0
▁liquid	-6522.0
vor	-6523.0
hl	-6524.0
три	-6525.0
▁ро	-6526.0
▁спис	-6527.0
▁ag	-6528.0
▁dispensing	-6529.0
▁outside	-6530.0
9,	-6531.0
▁had	-6532.0
ressed	-6533.0
▁carbon	-6534.0
ician	-6535.0
▁ai	-6536.0
tri	-6537.0
пиши	-6538.0
aring	-6539.0
onestly	-6540.0
performance	-6541.0
▁He	-6542.0
▁acting	-6543.0
▁invoices	-6544.0
▁jest	-6545.0
íts	-6546.0
ummer	-6547.0
▁Map	-6548.0
bob	-6549.0
▁YouTube	-6550.0
▁took	-6551.0
▁large	-6552.0
▁ό	-6553.0
words	-6554.0
πορ	-6555.0
kli	-6556.0
▁precipitation	-6557.0
ets	-6558.0
generated	-6559.0
▁exports	-6560.0
▁зна	-6561.0
▁Save	-6562.0
▁kom	-6563.0
loe	-6564.0
▁educational	-6565.0
▁alignment	-6566.0
overdue	-6567.0
▁mó	-6568.0
umb	-6569.0
▁those	-6570.0
esi	-6571.0
strenuous	-6572.0
▁olen	-6573.0
▁раз	-6574.0
ocuments	-6575.0
kö	-6576.0
▁blank	-6577.0
▁0.","	-6578.0
ję	-6579.0
▁positives	-6580.0
going	-6581.0
▁gas	-6582.0
8"}}]	-6583.0
ownt	-6584.0
-88	-6585.0
ке	-6586.0
šan	-6587.0
▁von	-6588.0
▁Gar	-6589.0
▁cool	-6590.0
▁apartment	-6591.0
9.	-6592.0
owntown	-6593.0
▁installation	-6594.0
▁Take	-6595.0
▁snack	-6596.0
arter	-6597.0
force	-6598.0
▁там	-6599.0
oogle	-6600.0
▁tired	-6601.0
rier	-6602.0
▁slu	-6603.0
mist	-6604.0
бу	-6605.0
maintain	-6606.0
μαι	-6607.0
":100,"	-6608.0
zione	-6609.0
umu	-6610.0
▁dem	-6611.0
▁tiegħ	-6612.0
maz	-6613.0
▁training	-6614.0
cil	-6615.0
serif	-6616.0
▁grab	-6617.0
▁ok	-6618.0
▁curated	-6619.0
▁capt	-6620.0
▁Det	-6621.0
▁To	-6622.0
composition	-6623.0
stan	-6624.0
▁medic	-6625.0
lio	-6626.0
▁surprise	-6627.0
▁accompany	-6628.0
recom	-6629.0
based	-6630.0
ology	-6631.0
compartment	-6632.0
prote	-6633.0
▁ongoing	-6634.0
▁pol	-6635.0
fitness	-6636.0
▁pak	-6637.0
▁accompanying	-6638.0
▁пока	-6639.0
▁als	-6640.0
quiet	-6641.0
ого	-6642.0
▁чи	-6643.0
▁strict	-6644.0
▁deposit	-6645.0
ird	-6646.0
▁interest	-6647.0
hard	-6648.0
▁desc	-6649.0
▁captured	-6650.0
arty	-6651.0
▁bud	-6652.0
λω	-6653.0
joni	-6654.0
ті	-6655.0
nst	-6656.0
▁się	-6657.0
▁Need	-6658.0
ched	-6659.0
▁charac	-6660.0
▁5,	-6661.0
▁creation	-6662.0
▁geographical	-6663.0
▁pane	-6664.0
со	-6665.0
▁road	-6666.0
▁voc	-6667.0
team	-6668.0
▁συ	-6669.0
▁moment	-6670.0
vad	-6671.0
▁Ku	-6672.0
_78	-6673.0
▁accident	-6674.0
fie	-6675.0
▁answe	-6676.0
▁calories	-6677.0
▁\	-6678.0
▁από	-6679.0
▁yes	-6680.0
":60,"	-6681.0
rer	-6682.0
▁meetings	-6683.0
▁bin	-6684.0
alla	-6685.0
zor	-6686.0
▁personalized	-6687.0
ras	-6688.0
hex	-6689.0
7,	-6690.0
▁0.	-6691.0
▁már	-6692.0
runing	-6693.0
leration	-6694.0
▁exposure	-6695.0
án	-6696.0
dietary	-6697.0
mel	-6698.0
мер	-6699.0
past	-6700.0
▁ny	-6701.0
▁tud	-6702.0
▁sports	-6703.0
▁AI	-6704.0
▁absolute	-6705.0
▁spaced	-6706.0
liness	-6707.0
▁tek	-6708.0
▁km	-6709.0
rar	-6710.0
▁cleanliness	-6711.0
purchase	-6712.0
▁han	-6713.0
ło	-6714.0
segment	-6715.0
▁requires	-6716.0
▁55	-6717.0
isi	-6718.0
▁configu	-6719.0
▁limits	-6720.0
Amara	-6721.0
ricul	-6722.0
▁earlier	-6723.0
▁investment	-6724.0
Netflix	-6725.0
mom	-6726.0
▁ш	-6727.0
orm	-6728.0
instru	-6729.0
▁Pot	-6730.0
tek	-6731.0
▁heb	-6732.0
▁weekend	-6733.0
▁won	-6734.0
▁са	-6735.0
▁Sofia	-6736.0
сі	-6737.0
lie	-6738.0
▁cli	-6739.0
zin	-6740.0
▁drive	-6741.0
▁Vo	-6742.0
ės	-6743.0
alo	-6744.0
▁answered	-6745.0
got	-6746.0
▁quite	-6747.0
owered	-6748.0
Do	-6749.0
▁launch	-6750.0
edIn	-6751.0
Moves	-6752.0
▁tar	-6753.0
▁los	-6754.0
pu	-6755.0
▁presets	-6756.0
▁wil	-6757.0
":12,"	-6758.0
▁ave	-6759.0
spital	-6760.0
ρέ	-6761.0
▁wire	-6762.0
łu	-6763.0
▁visits	-6764.0
-11	-6765.0
бва	-6766.0
both	-6767.0
▁tad	-6768.0
▁coming	-6769.0
xide	-6770.0
▁loud	-6771.0
▁fre	-6772.0
▁box	-6773.0
jak	-6774.0
▁pon	-6775.0
asset	-6776.0
aches	-6777.0
▁signific	-6778.0
▁For	-6779.0
▁providing	-6780.0
▁Enable	-6781.0
▁Un	-6782.0
sive	-6783.0
znam	-6784.0
▁Pe	-6785.0
▁від	-6786.0
itte	-6787.0
usted	-6788.0
▁hand	-6789.0
64	-6790.0
▁mute	-6791.0
▁skip	-6792.0
rio	-6793.0
kes	-6794.0
gym	-6795.0
рябва	-6796.0
▁classi	-6797.0
auk	-6798.0
εν	-6799.0
▁far	-6800.0
Desired	-6801.0
hover	-6802.0
mas	-6803.0
nts	-6804.0
▁zd	-6805.0
▁credit	-6806.0
▁nem	-6807.0
άλε	-6808.0
4.	-6809.0
▁editor	-6810.0
▁dok	-6811.0
":"88	-6812.0
▁small	-6813.0
▁tiegħi	-6814.0
edu	-6815.0
diagnostic	-6816.0
.0,"	-6817.0
▁тут	-6818.0
▁cs	-6819.0
▁presentation	-6820.0
rolled	-6821.0
▁proper	-6822.0
ig	-6823.0
▁στη	-6824.0
zation	-6825.0
Include	-6826.0
▁veterin	-6827.0
":120,"	-6828.0
▁ку	-6829.0
▁aqui	-6830.0
▁тре	-6831.0
ille	-6832.0
▁overdue	-6833.0
ira	-6834.0
:45	-6835.0
▁asleep	-6836.0
preset	-6837.0
Inter	-6838.0
πει	-6839.0
years	-6840.0
▁skal	-6841.0
▁ple	-6842.0
▁ski	-6843.0
▁were	-6844.0
▁finalize	-6845.0
▁wie	-6846.0
▁fund	-6847.0
▁Fa	-6848.0
statistics	-6849.0
▁monoxide	-6850.0
▁categorized	-6851.0
▁DOI	-6852.0
nip	-6853.0
▁extracted	-6854.0
_882","	-6855.0
šk	-6856.0
vit	-6857.0
_001","	-6858.0
▁Au	-6859.0
▁owner	-6860.0
ίσ	-6861.0
?'	-6862.0
▁här	-6863.0
gins	-6864.0
▁sve	-6865.0
▁tipo	-6866.0
▁voisitko	-6867.0
_2	-6868.0
▁fal	-6869.0
60	-6870.0
garden	-6871.0
▁мину	-6872.0
▁endpoint	-6873.0
▁pick	-6874.0
▁пу	-6875.0
ναι	-6876.0
ctron	-6877.0
▁honestly	-6878.0
▁szóval	-6879.0
▁ut	-6880.0
completion	-6881.0
":"4	-6882.0
atten	-6883.0
▁shift	-6884.0
▁repe	-6885.0
tok	-6886.0
став	-6887.0
ikia	-6888.0
iex	-6889.0
rawling	-6890.0
▁ekran	-6891.0
▁mie	-6892.0
vje	-6893.0
▁wa	-6894.0
▁sync	-6895.0
_882	-6896.0
▁hyper	-6897.0
łącz	-6898.0
▁uma	-6899.0
▁mun	-6900.0
▁1.0","	-6901.0
▁initialize	-6902.0
▁chi	-6903.0
pends	-6904.0
▁peux	-6905.0
4'	-6906.0
Any	-6907.0
owl	-6908.0
lobal	-6909.0
esz	-6910.0
▁pruning	-6911.0
ang	-6912.0
▁bez	-6913.0
▁stroller	-6914.0
▁gran	-6915.0
ona	-6916.0
▁modes	-6917.0
cision	-6918.0
aching	-6919.0
▁Netflix	-6920.0
taa	-6921.0
▁κά	-6922.0
▁dla	-6923.0
cert	-6924.0
▁classification	-6925.0
ги	-6926.0
euver	-6927.0
mountain	-6928.0
▁tax	-6929.0
coverage	-6930.0
▁png	-6931.0
▁Look	-6932.0
▁85	-6933.0
▁verific	-6934.0
▁2,	-6935.0
▁five	-6936.0
▁мі	-6937.0
backlight	-6938.0
▁hap	-6939.0
▁Read	-6940.0
▁mechanic	-6941.0
Begins	-6942.0
▁tik	-6943.0
ön	-6944.0
ola	-6945.0
▁AM	-6946.0
ande	-6947.0
acon	-6948.0
ris	-6949.0
SI	-6950.0
gery	-6951.0
▁pode	-6952.0
ER	-6953.0
▁180	-6954.0
▁describing	-6955.0
▁arrange	-6956.0
onne	-6957.0
▁dé	-6958.0
Utilities	-6959.0
▁doing	-6960.0
ята	-6961.0
wo	-6962.0
8:30	-6963.0
▁mert	-6964.0
uma	-6965.0
":3}},{"	-6966.0
▁75	-6967.0
▁gram	-6968.0
▁nastav	-6969.0
▁gali	-6970.0
musical	-6971.0
τό	-6972.0
āj	-6973.0
▁technician	-6974.0
ena	-6975.0
acation	-6976.0
rench	-6977.0
Tokyo	-6978.0
cloud	-6979.0
cesito	-6980.0
éri	-6981.0
▁molim	-6982.0
nda	-6983.0
▁siin	-6984.0
sca	-6985.0
gur	-6986.0
▁sprawd	-6987.0
▁este	-6988.0
▁pan	-6989.0
precision	-6990.0
ndo	-6991.0
locked	-6992.0
signature	-6993.0
▁inf	-6994.0
elena	-6995.0
pop	-6996.0
▁minutos	-6997.0
én	-6998.0
▁triggered	-6999.0
▁trave	-7000.0
▁mám	-7001.0
▁completing	-7002.0
▁contained	-7003.0
acing	-7004.0
скам	-7005.0
▁будь	-7006.0
rais	-7007.0
kem	-7008.0
urnal	-7009.0
▁Give	-7010.0
▁вы	-7011.0
ень	-7012.0
▁prior	-7013.0
▁'4	-7014.0
land	-7015.0
uten	-7016.0
utive	-7017.0
▁brushes	-7018.0
smile	-7019.0
]]	-7020.0
čiau	-7021.0
▁vš	-7022.0
▁command	-7023.0
▁growth	-7024.0
▁που	-7025.0
csv	-7026.0
▁UI	-7027.0
▁freshness	-7028.0
▁17	-7029.0
IDI	-7030.0
numbers	-7031.0
bes	-7032.0
lejandro	-7033.0
reshes	-7034.0
Elena	-7035.0
áll	-7036.0
▁fet	-7037.0
▁codes	-7038.0
▁Hej	-7039.0
▁crib	-7040.0
No	-7041.0
▁rá	-7042.0
▁str	-7043.0
wn	-7044.0
▁veterinary	-7045.0
Sho	-7046.0
▁mor	-7047.0
▁чтобы	-7048.0
▁hur	-7049.0
хай	-7050.0
ного	-7051.0
_001	-7052.0
▁memo	-7053.0
▁spre	-7054.0
nia	-7055.0
▁Hel	-7056.0
scheduled	-7057.0
":"123	-7058.0
▁waste	-7059.0
▁ба	-7060.0
▁dans	-7061.0
anese	-7062.0
▁jazz	-7063.0
sx	-7064.0
Difficulty	-7065.0
▁statu	-7066.0
overy	-7067.0
anie	-7068.0
▁ласка	-7069.0
cture	-7070.0
offee	-7071.0
amento	-7072.0
▁goals	-7073.0
▁present	-7074.0
▁intended	-7075.0
ιο	-7076.0
▁ud	-7077.0
▁agora	-7078.0
▁Tik	-7079.0
▁favore	-7080.0
vol	-7081.0
▁še	-7082.0
▁complexity	-7083.0
▁exha	-7084.0
brake	-7085.0
▁Remind	-7086.0
▁pauses	-7087.0
▁vil	-7088.0
▁Fahrenheit	-7089.0
▁dag	-7090.0
here	-7091.0
лко	-7092.0
▁ale	-7093.0
psi	-7094.0
āk	-7095.0
6","	-7096.0
tä	-7097.0
xlsx	-7098.0
▁MIDI	-7099.0
mine	-7100.0
missions	-7101.0
μο	-7102.0
▁Man	-7103.0
▁Street	-7104.0
▁ah	-7105.0
keting	-7106.0
▁resets	-7107.0
":90}}]	-7108.0
▁αν	-7109.0
▁τις	-7110.0
ká	-7111.0
gging	-7112.0
▁dire	-7113.0
airobi	-7114.0
▁3,	-7115.0
▁avec	-7116.0
_90	-7117.0
▁пла	-7118.0
-123	-7119.0
▁costs	-7120.0
▁bal	-7121.0
είς	-7122.0
omo	-7123.0
бе	-7124.0
verify	-7125.0
ний	-7126.0
amara	-7127.0
secutive	-7128.0
cific	-7129.0
ėtum	-7130.0
▁prep	-7131.0
▁capture	-7132.0
▁breaks	-7133.0
▁school	-7134.0
eg	-7135.0
ías	-7136.0
▁πο	-7137.0
anje	-7138.0
▁гра	-7139.0
▁lost	-7140.0
thering	-7141.0
▁resume	-7142.0
▁rolling	-7143.0
▁powered	-7144.0
8.	-7145.0
▁proszę	-7146.0
riculum	-7147.0
tie	-7148.0
7.	-7149.0
▁dam	-7150.0
klo	-7151.0
risk	-7152.0
istra	-7153.0
roll	-7154.0
imal	-7155.0
▁ovaj	-7156.0
FF	-7157.0
▁gener	-7158.0
▁hea	-7159.0
mike	-7160.0
▁dab	-7161.0
▁ry	-7162.0
▁eine	-7163.0
▁exceed	-7164.0
expiration	-7165.0
▁все	-7166.0
guests	-7167.0
▁transit	-7168.0
št	-7169.0
nika	-7170.0
▁Quick	-7171.0
▁identities	-7172.0
▁5000	-7173.0
▁little	-7174.0
":1,"	-7175.0
":15}},{"	-7176.0
mä	-7177.0
alpha	-7178.0
vening	-7179.0
▁так	-7180.0
▁chat	-7181.0
mute	-7182.0
▁cups	-7183.0
▁bowl	-7184.0
▁very	-7185.0
▁why	-7186.0
ją	-7187.0
velocity	-7188.0
nis	-7189.0
nam	-7190.0
▁feel	-7191.0
▁Kofi	-7192.0
▁good	-7193.0
▁force	-7194.0
_456	-7195.0
▁Project	-7196.0
▁devi	-7197.0
rin	-7198.0
mates	-7199.0
nos	-7200.0
▁dne	-7201.0
▁curriculum	-7202.0
▁lab	-7203.0
Qu	-7204.0
▁advanced	-7205.0
▁kep	-7206.0
▁""}}}]	-7207.0
▁urgency	-7208.0
coordinates	-7209.0
▁kr	-7210.0
ker	-7211.0
_88","	-7212.0
fespan	-7213.0
lé	-7214.0
▁paths	-7215.0
▁bar	-7216.0
-3	-7217.0
кти	-7218.0
aly	-7219.0
▁час	-7220.0
▁includes	-7221.0
▁upon	-7222.0
ор	-7223.0
lich	-7224.0
ок	-7225.0
nta	-7226.0
ier	-7227.0
▁ένα	-7228.0
":200}}]	-7229.0
maps	-7230.0
cks	-7231.0
dem	-7232.0
pencil	-7233.0
▁curi	-7234.0
usta	-7235.0
nthe	-7236.0
heating	-7237.0
▁transition	-7238.0
▁dra	-7239.0
▁είναι	-7240.0
▁mam	-7241.0
▁Est	-7242.0
▁akt	-7243.0
ото	-7244.0
▁significant	-7245.0
▁theme	-7246.0
▁labe	-7247.0
sequence	-7248.0
ения	-7249.0
▁več	-7250.0
ote	-7251.0
▁standing	-7252.0
ua	-7253.0
▁Twitch	-7254.0
▁må	-7255.0
▁Santiago	-7256.0
lož	-7257.0
άρ	-7258.0
▁moram	-7259.0
hir	-7260.0
πορείς	-7261.0
dag	-7262.0
▁remin	-7263.0
▁overlays	-7264.0
▁minuta	-7265.0
▁volumetric	-7266.0
packing	-7267.0
Al	-7268.0
console	-7269.0
▁stra	-7270.0
▁Disable	-7271.0
▁čas	-7272.0
▁lifespan	-7273.0
bit	-7274.0
▁né	-7275.0
▁під	-7276.0
▁vē	-7277.0
▁repetition	-7278.0
▁echt	-7279.0
▁saaksid	-7280.0
vey	-7281.0
anda	-7282.0
hol	-7283.0
στ	-7284.0
▁layers	-7285.0
":8,"	-7286.0
▁biex	-7287.0
▁Sk	-7288.0
":20}},{"	-7289.0
das	-7290.0
▁technique	-7291.0
лухай	-7292.0
12	-7293.0
γρα	-7294.0
inspection	-7295.0
Clears	-7296.0
▁spot	-7297.0
▁occurre	-7298.0
▁pää	-7299.0
▁looks	-7300.0
oda	-7301.0
▁kit	-7302.0
гу	-7303.0
meat	-7304.0
assignment	-7305.0
▁patterns	-7306.0
uesday	-7307.0
oli	-7308.0
▁notify	-7309.0
bypass	-7310.0
kki	-7311.0
▁prze	-7312.0
▁fix	-7313.0
ца	-7314.0
ryp	-7315.0
▁coo	-7316.0
▁kontakt	-7317.0
су	-7318.0
alibration	-7319.0
8,	-7320.0
▁250	-7321.0
":14	-7322.0
σα	-7323.0
reat	-7324.0
▁TikTok	-7325.0
▁labeled	-7326.0
▁net	-7327.0
▁shel	-7328.0
▁integers	-7329.0
▁10","	-7330.0
▁ul	-7331.0
mov	-7332.0
rit	-7333.0
Preferred	-7334.0
▁restrictions	-7335.0
▁season	-7336.0
▁velocity	-7337.0
▁daj	-7338.0
▁exceeds	-7339.0
urry	-7340.0
_01"}}]	-7341.0
-05-1	-7342.0
▁consecutive	-7343.0
▁something	-7344.0
▁bru	-7345.0
isa	-7346.0
▁galėtum	-7347.0
hr	-7348.0
":30}},{"	-7349.0
etailed	-7350.0
Determin	-7351.0
▁expla	-7352.0
Detailed	-7353.0
more	-7354.0
вто	-7355.0
Category	-7356.0
▁mp	-7357.0
Guest	-7358.0
▁evalu	-7359.0
zet	-7360.0
Determines	-7361.0
час	-7362.0
olicy	-7363.0
ghter	-7364.0
biking	-7365.0
Lists	-7366.0
":"5	-7367.0
▁suis	-7368.0
wei	-7369.0
▁Post	-7370.0
Resizes	-7371.0
мк	-7372.0
▁successfully	-7373.0
calibrate	-7374.0
lad	-7375.0
bujem	-7376.0
▁gate	-7377.0
orts	-7378.0
":100}}]	-7379.0
▁η	-7380.0
▁Fi	-7381.0
ges	-7382.0
lled	-7383.0
orie	-7384.0
▁lok	-7385.0
":150,"	-7386.0
":7,"	-7387.0
▁produ	-7388.0
▁hear	-7389.0
pit	-7390.0
▁poč	-7391.0
":55	-7392.0
āt	-7393.0
▁naps	-7394.0
▁poš	-7395.0
▁aby	-7396.0
ła	-7397.0
OC	-7398.0
previously	-7399.0
▁catering	-7400.0
▁przy	-7401.0
asi	-7402.0
▁meaning	-7403.0
сть	-7404.0
ната	-7405.0
▁sle	-7406.0
used	-7407.0
▁2025	-7408.0
anya	-7409.0
▁chosen	-7410.0
questions	-7411.0
amo	-7412.0
▁addition	-7413.0
milk	-7414.0
σεις	-7415.0
]"},	-7416.0
▁kor	-7417.0
":0.5}}]	-7418.0
200	-7419.0
."}},{"	-7420.0
вай	-7421.0
kä	-7422.0
▁mio	-7423.0
▁smoothie	-7424.0
lit	-7425.0
access	-7426.0
▁relax	-7427.0
▁warm	-7428.0
▁aus	-7429.0
▁té	-7430.0
▁container	-7431.0
čen	-7432.0
▁vid	-7433.0
▁minuti	-7434.0
":"555-	-7435.0
▁pār	-7436.0
▁setup	-7437.0
▁enough	-7438.0
preserve	-7439.0
lang	-7440.0
▁fertilizing	-7441.0
bl	-7442.0
ró	-7443.0
▁kept	-7444.0
amente	-7445.0
":6}}]	-7446.0
TC	-7447.0
ργ	-7448.0
sharing	-7449.0
▁sono	-7450.0
▁feels	-7451.0
WiFi	-7452.0
nums	-7453.0
▁connect	-7454.0
▁reminded	-7455.0
appointment	-7456.0
▁cam	-7457.0
ām	-7458.0
▁nou	-7459.0
▁mach	-7460.0
▁21	-7461.0
▁gaming	-7462.0
fficult	-7463.0
▁supply	-7464.0
anto	-7465.0
Ref	-7466.0
▁tá	-7467.0
":25}}]	-7468.0
▁selle	-7469.0
azz	-7470.0
zia	-7471.0
▁delayed	-7472.0
▁exhausted	-7473.0
▁bate	-7474.0
▁cel	-7475.0
▁sor	-7476.0
":25,"	-7477.0
▁calculates	-7478.0
ēr	-7479.0
▁aw	-7480.0
▁displays	-7481.0
":"2023-11	-7482.0
▁packed	-7483.0
kar	-7484.0
▁ban	-7485.0
istory	-7486.0
▁sistem	-7487.0
▁preheating	-7488.0
▁compression	-7489.0
▁hands	-7490.0
жалу	-7491.0
▁artistic	-7492.0
▁occurrence	-7493.0
▁eyes	-7494.0
Chen	-7495.0
pir	-7496.0
▁projek	-7497.0
olla	-7498.0
sensitive	-7499.0
▁Im	-7500.0
We	-7501.0
égys	-7502.0
▁Kuule	-7503.0
▁Maple	-7504.0
ima	-7505.0
κα	-7506.0
bin	-7507.0
▁zá	-7508.0
▁cell	-7509.0
нь	-7510.0
▁shoot	-7511.0
":"2023-10-2	-7512.0
κο	-7513.0
cat	-7514.0
rea	-7515.0
_5	-7516.0
▁paper	-7517.0
fen	-7518.0
8}}]	-7519.0
boss	-7520.0
▁resi	-7521.0
":22	-7522.0
▁laik	-7523.0
growth	-7524.0
ación	-7525.0
▁Għ	-7526.0
nji	-7527.0
ēc	-7528.0
сни	-7529.0
atsApp	-7530.0
oka	-7531.0
▁ré	-7532.0
▁overall	-7533.0
undry	-7534.0
ctronic	-7535.0
atti	-7536.0
nities	-7537.0
▁wat	-7538.0
▁potresti	-7539.0
▁IP	-7540.0
▁len	-7541.0
▁floor	-7542.0
▁ba	-7543.0
jd	-7544.0
ет	-7545.0
▁optim	-7546.0
▁нужно	-7547.0
mes	-7548.0
▁ruti	-7549.0
▁jako	-7550.0
ilo	-7551.0
▁forgot	-7552.0
ния	-7553.0
▁proje	-7554.0
▁sorted	-7555.0
▁sens	-7556.0
urser	-7557.0
жалуй	-7558.0
▁кон	-7559.0
▁best	-7560.0
BC	-7561.0
▁bei	-7562.0
raz	-7563.0
▁conver	-7564.0
pensive	-7565.0
▁Il	-7566.0
":"2025	-7567.0
▁aim	-7568.0
▁Mari	-7569.0
▁City	-7570.0
umbai	-7571.0
▁deactivate	-7572.0
▁probability	-7573.0
▁mim	-7574.0
▁hab	-7575.0
▁headphones	-7576.0
orders	-7577.0
▁sv	-7578.0
▁jsem	-7579.0
▁market	-7580.0
ée	-7581.0
▁sul	-7582.0
жалуйста	-7583.0
_01.	-7584.0
▁4,	-7585.0
▁timing	-7586.0
▁Comp	-7587.0
nippet	-7588.0
0","	-7589.0
▁draft	-7590.0
":7}}]	-7591.0
beat	-7592.0
▁VOC	-7593.0
dar	-7594.0
watercolor	-7595.0
▁payments	-7596.0
▁field	-7597.0
fik	-7598.0
▁vyp	-7599.0
ssive	-7600.0
▁ost	-7601.0
▁bou	-7602.0
▁heatwave	-7603.0
▁begins	-7604.0
▁collaboration	-7605.0
jor	-7606.0
Instagram	-7607.0
lub	-7608.0
nem	-7609.0
sunlight	-7610.0
jury	-7611.0
▁receipt	-7612.0
:30"}}]	-7613.0
гра	-7614.0
group	-7615.0
war	-7616.0
bal	-7617.0
vide	-7618.0
urger	-7619.0
▁answers	-7620.0
iro	-7621.0
onn	-7622.0
▁ди	-7623.0
bool	-7624.0
▁wireless	-7625.0
▁sli	-7626.0
ador	-7627.0
iek	-7628.0
τί	-7629.0
Mei	-7630.0
▁asking	-7631.0
стро	-7632.0
▁peak	-7633.0
sche	-7634.0
0,	-7635.0
:00"}},{"	-7636.0
":500}}]	-7637.0
vn	-7638.0
sv	-7639.0
είο	-7640.0
ksi	-7641.0
▁behind	-7642.0
pod	-7643.0
▁mé	-7644.0
▁ig	-7645.0
▁missed	-7646.0
pal	-7647.0
ggi	-7648.0
dosage	-7649.0
ffer	-7650.0
вери	-7651.0
tis	-7652.0
▁yesterday	-7653.0
itar	-7654.0
▁PSI	-7655.0
▁bitrate	-7656.0
▁fetched	-7657.0
ket	-7658.0
Estimates	-7659.0
▁tot	-7660.0
▁temp	-7661.0
tru	-7662.0
elance	-7663.0
▁αυ	-7664.0
automated	-7665.0
▁nach	-7666.0
baby	-7667.0
▁attention	-7668.0
sented	-7669.0
scord	-7670.0
▁alg	-7671.0
3.	-7672.0
▁sid	-7673.0
ката	-7674.0
servation	-7675.0
▁anymore	-7676.0
gal	-7677.0
äng	-7678.0
pts	-7679.0
":2}},{"	-7680.0
▁ly	-7681.0
yearly	-7682.0
wise	-7683.0
quare	-7684.0
_001"}}]	-7685.0
▁collected	-7686.0
avid	-7687.0
μά	-7688.0
▁kä	-7689.0
▁ot	-7690.0
▁statuses	-7691.0
ursery	-7692.0
▁sl	-7693.0
ngo	-7694.0
":500,"	-7695.0
▁kui	-7696.0
yota	-7697.0
▁affect	-7698.0
▁customized	-7699.0
oco	-7700.0
▁viel	-7701.0
▁fire	-7702.0
▁če	-7703.0
▁completely	-7704.0
▁muszę	-7705.0
smu	-7706.0
▁Berlin	-7707.0
cran	-7708.0
ån	-7709.0
▁παρα	-7710.0
ар	-7711.0
lpha	-7712.0
▁ol	-7713.0
ayed	-7714.0
▁apli	-7715.0
try	-7716.0
lok	-7717.0
сте	-7718.0
▁sobre	-7719.0
ii	-7720.0
jl	-7721.0
tar	-7722.0
jä	-7723.0
▁nech	-7724.0
▁искам	-7725.0
ρε	-7726.0
▁prin	-7727.0
▁totally	-7728.0
apture	-7729.0
lite	-7730.0
▁nas	-7731.0
▁της	-7732.0
retain	-7733.0
29	-7734.0
IN	-7735.0
▁nii	-7736.0
ться	-7737.0
▁5","	-7738.0
Downloads	-7739.0
▁studio	-7740.0
ending	-7741.0
▁same	-7742.0
▁upp	-7743.0
▁vitals	-7744.0
▁efter	-7745.0
▁зараз	-7746.0
junk	-7747.0
readings	-7748.0
.00	-7749.0
6,	-7750.0
buie	-7751.0
▁evening	-7752.0
кра	-7753.0
▁Air	-7754.0
▁como	-7755.0
έλω	-7756.0
apcs	-7757.0
▁можеш	-7758.0
▁ikke	-7759.0
▁headcount	-7760.0
genre	-7761.0
ului	-7762.0
▁tú	-7763.0
▁kell	-7764.0
▁kod	-7765.0
▁shot	-7766.0
hick	-7767.0
▁poz	-7768.0
":"22	-7769.0
▁purchased	-7770.0
rad	-7771.0
▁fly	-7772.0
▁nep	-7773.0
▁vak	-7774.0
▁треба	-7775.0
e	-7776.0
"	-7777.0
t	-7778.0
▁	-7779.0
r	-7780.0
i	-7781.0
a	-7782.0
n	-7783.0
s	-7784.0
o	-7785.0
:	-7786.0
d	-7787.0
p	-7788.0
c	-7789.0
,	-7790.0
u	-7791.0
m	-7792.0
l	-7793.0
h	-7794.0
g	-7795.0
{	-7796.0
}	-7797.0
f	-7798.0
y	-7799.0
_	-7800.0
.	-7801.0
b	-7802.0
q	-7803.0
'	-7804.0
v	-7805.0
k	-7806.0
w	-7807.0
T	-7808.0
[	-7809.0
]	-7810.0
x	-7811.0
S	-7812.0
0	-7813.0
C	-7814.0
R	-7815.0
z	-7816.0
j	-7817.0
-	-7818.0
D	-7819.0
A	-7820.0
O	-7821.0
I	-7822.0
1	-7823.0
N	-7824.0
W	-7825.0
P	-7826.0
M	-7827.0
2	-7828.0
G	-7829.0
5	-7830.0
L	-7831.0
E	-7832.0
F	-7833.0
а	-7834.0
U	-7835.0
о	-7836.0
3	-7837.0
Y	-7838.0
(	-7839.0
)	-7840.0
H	-7841.0
и	-7842.0
?	-7843.0
/	-7844.0
4	-7845.0
V	-7846.0
е	-7847.0
т	-7848.0
н	-7849.0
B	-7850.0
9	-7851.0
8	-7852.0
р	-7853.0
с	-7854.0
7	-7855.0
в	-7856.0
к	-7857.0
6	-7858.0
ä	-7859.0
л	-7860.0
м	-7861.0
д	-7862.0
α	-7863.0
п	-7864.0
у	-7865.0
é	-7866.0
á	-7867.0
ο	-7868.0
ε	-7869.0
τ	-7870.0
з	-7871.0
K	-7872.0
ι	-7873.0
š	-7874.0
J	-7875.0
я	-7876.0
í	-7877.0
Q	-7878.0
і	-7879.0
ν	-7880.0
č	-7881.0
σ	-7882.0
ρ	-7883.0
ö	-7884.0
й	-7885.0
ч	-7886.0
ă	-7887.0
б	-7888.0
μ	-7889.0
г	-7890.0
ž	-7891.0
ħ	-7892.0
ā	-7893.0
π	-7894.0
å	-7895.0
ь	-7896.0
ó	-7897.0
κ	-7898.0
=	-7899.0
λ	-7900.0
ж	-7901.0
η	-7902.0
υ	-7903.0
ί	-7904.0
ς	-7905.0
ü	-7906.0
ά	-7907.0
ą	-7908.0
γ	-7909.0
Z	-7910.0
ш	-7911.0
;	-7912.0
х	-7913.0
ę	-7914.0
έ	-7915.0
ē	-7916.0
ό	-7917.0
ю	-7918.0
@	-7919.0
ω	-7920.0
ц	-7921.0
ī	-7922.0
!	-7923.0
ъ	-7924.0
ы	-7925.0
ł	-7926.0
ú	-7927.0
\	-7928.0
ė	-7929.0
